[PAD]
[UNK]
[CLS]
[SEP]
[MASK]
!
"
#
$
%
&
'
(
)
*
+
,
-
.
/
0
1
2
3
4
5
6
7
8
9
:
;
<
=
>
?
@
[
\
]
^
_
`
a
b
c
d
e
f
g
h
i
j
k
l
m
n
o
p
q
r
s
t
u
v
w
x
y
z
{
|
}
~
¡
¢
£
¥
§
©
ª
«
¬
®
¯
°
±
²
³
´
µ
¶
·
¸
¹
º
»
¼
½
¾
¿
×
ß
æ
ð
÷
ø
þ
đ
ħ
ı
ł
ŋ
œ
ƒ
ɑ
ɔ
ə
ɛ
ɣ
ɨ
ɪ
ʀ
ʃ
ʔ
ʰ
ʷ
ʻ
ʼ
ʾ
ʿ
ˈ
ː
˙
α
β
γ
δ
ε
ζ
η
θ
ι
κ
λ
μ
ν
ξ
ο
π
ρ
ς
σ
τ
υ
φ
χ
ψ
ω
ϕ
а
б
в
г
д
е
ж
з
и
к
л
м
н
о
п
р
с
т
у
ф
х
ц
ч
ш
щ
ъ
ы
ь
э
ю
я
і
ј
ћ
ӏ
ա
գ
ե
ի
կ
հ
մ
յ
ն
ո
ս
տ
ր
ւ
א
ב
ג
ד
ה
ו
ז
ח
ט
י
כ
ל
ם
מ
ן
נ
ס
ע
פ
צ
ק
ר
ש
ת
׳
،
ء
ا
ب
ة
ت
ث
ج
ح
خ
د
ذ
ر
ز
س
ش
ص
ض
ط
ظ
ع
غ
ف
ق
ك
ل
م
ن
ه
و
ى
ي
پ
چ
ک
گ
ہ
ی
अ
आ
क
ख
ग
च
ज
ट
ड
ण
त
द
ध
न
प
ब
भ
म
य
र
ल
व
श
ष
स
ह
ा
ि
ी
ो
ক
ত
দ
ন
প
ব
ম
য
র
ল
স
া
ি
ী
ে
க
ச
ட
த
ந
ன
ப
ம
ய
ர
ல
ள
வ
ா
ி
ு
ே
ை
ರ
ಾ
ು
ക
ട
ത
ന
പ
മ
ര
ാ
ി
ක
ත
ද
න
ම
ය
ර
ල
ව
ස
ා
ෙ
ก
ข
ค
ง
จ
ช
ด
ต
ท
น
บ
ป
พ
ม
ย
ร
ล
ว
ศ
ส
ห
อ
ะ
า
ำ
เ
แ
โ
ไ
་
က
င
မ
ာ
ေ
း
ა
ბ
ე
ვ
თ
ი
ლ
მ
ნ
ო
რ
ს
ᄀ
ᄁ
ᄂ
ᄃ
ᄅ
ᄆ
ᄇ
ᄉ
ᄊ
ᄋ
ᄌ
ᄎ
ᄏ
ᄐ
ᄑ
ᄒ
ᅡ
ᅢ
ᅣ
ᅥ
ᅦ
ᅧ
ᅨ
ᅩ
ᅪ
ᅬ
ᅭ
ᅮ
ᅯ
ᅱ
ᅲ
ᅳ
ᅴ
ᅵ
ᆨ
ᆫ
ᆯ
ᆷ
ᆸ
ᆺ
ᆼ
ា
‐
‑
‒
–
—
―
‘
’
‚
“
”
„
†
‡
•
…
‰
′
″
‹
⁄
⁵
⁶
⁸
⁹
⁺
⁻
₀
₁
₂
₃
₄
₅
€
₱
₹
ℓ
№
™
ⅰ
ⅱ
ⅲ
←
↑
→
↓
↔
⇒
∆
∈
−
∗
∙
∞
∼
≈
≡
≤
≥
≧
⋅
─
│
►
●
★
☆
♦
♭
⟨
⟩
⩽
⩾
、
。
《
》
「
」
『
』
【
】
あ
い
う
え
お
か
き
く
け
こ
さ
し
す
せ
そ
た
ち
っ
つ
て
と
な
に
の
は
ひ
へ
ま
み
め
も
や
よ
ら
り
る
れ
を
ん
ア
ィ
イ
ウ
エ
オ
カ
キ
ク
ケ
コ
サ
シ
ス
タ
チ
ッ
ツ
テ
ト
ナ
ニ
ノ
ハ
ヒ
フ
ヘ
ホ
マ
ミ
ム
メ
モ
ャ
ュ
ラ
リ
ル
レ
ロ
ン
・
ー
一
三
上
下
不
与
世
东
个
中
临
为
主
义
之
乡
了
事
二
于
五
井
京
人
仁
代
以
会
位
低
体
作
你
使
例
保
信
值
健
元
光
克
免
入
全
八
公
共
关
其
内
出
分
切
利
别
到
制
前
劉
力
功
加
动
化
北
区
医
十
千
华
南
原
及
反
发
受
变
口
古
可
台
史
司
合
吉
同
名
后
向
君
周
和
响
四
回
因
国
國
土
在
地
均
型
城
基
增
士
夏
外
多
夜
大
天
太
夫
女
好
子
存
学
學
安
宗
定
实
家
宿
对
寺
小
少
尿
展
山
島
川
州
工
差
巴
市
常
平
年
并
床
应
度
康
建
异
式
張
影
德
心
志
性
患
情
意
愛
感
成
我
所
手
抑
指
据
探
提
效
教
数
文
断
新
方
族
无
日
时
明
星
春
是
显
時
景
曲
書
最
會
月
有
期
木
未
本
术
机
李
村
来
東
松
析
林
果
查
标
校
检
樂
模
次
歌
正
武
死
比
氏
民
水
永
江
河
治
法
活
流
测
海
清
港
源
火
無
照
版
物
特
状
率
玉
王
现
理
生
用
田
男
界
疗
疫
病
症
瘤
癌
白
百
的
皇
皮
目
相
真
知
石
研
示
社
神
福
种
科
程
究
空
突
立
第
等
管
糖
系
素
线
组
细
经
结
统
美
義
者
而
联
育
肺
肿
背
胞
能
自
至
良
节
花
英
華
著
藤
蛋
血
行
街
表
西
要
親
解
言
記
語
计
论
评
诊
语
路
車
軍
转
较
达
过
进
通
道
郎
郡
部
都
采
里
重
野
量
金
镇
長
长
門
间
阳
阿
院
险
陳
陽
随
集
青
非
面
音
预
風
风
食
香
馬
马
验
骨
高
黃
黄
龍
龙
ﬁ
（
）
，
－
：
；
＜
～
##e
##r
##s
##i
##m
##o
##n
##c
##u
##d
##b
##a
##p
##z
##1
##9
##h
##w
##t
##v
##3
##5
##8
##6
##g
##k
##0
##l
##q
##f
##x
##2
##υ
##ν
##α
##π
##τ
##η
##y
##7
##4
##j
##с
##и
##´
##ł
##€
##∼
##т
##о
##р
##і
##я
##а
##з
##ɛ
##д
##е
##г
##у
##м
##к
##ф
##н
##ᅮ
##ᄒ
##ᅭ
##ᄉ
##ᅥ
##ᄀ
##ᅡ
##ə
##ı
##ද
##ය
##ා
##ර
##ש
##א
##ל
##ո
##ւ
##ս
##ա
##կ
##ի
##ն
##ר
##י
##מ
##ה
##δ
##ε
##μ
##ก
##ร
##อ
##น
##ท
##ด
##เ
##จ
##ย
##ʻ
##र
##व
##म
##ा
##य
##ि
##द
##त
##л
##ᄅ
##ᄂ
##±
##ɔ
##ᆨ
##ᄎ
##ᅦ
##פ
##ו
##ת
##−
##ʿ
##æ
##σ
##ρ
##ω
##ी
##भ
##в
##ت
##ج
##س
##د
##ð
##ส
##า
##ว
##ل
##ا
##ع
##ه
##þ
##ា
##ы
##п
##ʰ
##ト
##ヒ
##リ
##フ
##タ
##⋅
##ь
##ي
##ن
##ة
##م
##خ
##ر
##ی
##ι
##ς
##ந
##த
##ு
##க
##ி
##ல
##ᅩ
##ᆫ
##²
##≥
##ா
##ன
##ட
##ர
##ள
##ᄌ
##ᅵ
##ᄆ
##×
##đ
##ր
##ե
##ʾ
##ш
##ο
##κ
##ц
##х
##র
##ি
##←
##ス
##シ
##ロ
##コ
##ケ
##カ
##ᆷ
##ᅧ
##ᄑ
##ᅢ
##β
##ே
##ம
##™
##ъ
##э
##б
##ச
##ை
##ح
##و
##ف
##ز
##ಾ
##λ
##כ
##ʃ
##چ
##ش
##ᆯ
##ᄋ
##の
##°
##↓
##→
##մ
##ß
##≤
##ك
##ث
##ب
##φ
##ห
##ง
##ช
##ャ
##ン
##ク
##ル
##ム
##ᄃ
##ो
##ー
##ട
##ി
##ാ
##ന
##ത
##स
##ط
##ध
##ल
##⁄
##ᆼ
##ᅪ
##ラ
##ュ
##ナ
##ッ
##ø
##ق
##ص
##ら
##か
##よ
##ж
##®
##ј
##₂
##す
##ป
##ะ
##ต
##ᅣ
##ᆸ
##য
##া
##ে
##ა
##რ
##ს
##ვ
##ლ
##თ
##ე
##ნ
##ᄇ
##ო
##ი
##მ
##ბ
##տ
##ח
##ɨ
##ウ
##オ
##ำ
##ม
##ζ
##¼
##ᅳ
##ᄏ
##ᄐ
##ᅴ
##क
##ю
##イ
##モ
##₁
##ᅲ
##ذ
##ک
##ہ
##¹
##º
##ෙ
##ක
##ස
##پ
##ː
##ᅯ
##µ
##न
##ч
##ய
##வ
##נ
##さ
##き
##ล
##พ
##ค
##ข
##ন
##ব
##দ
##∞
##प
##ᅱ
##め
##ん
##ರ
##щ
##θ
##∆
##γ
##ŋ
##ハ
##ア
##ツ
##บ
##ေ
##င
##ာ
##ˈ
##գ
##χ
##ħ
##¸
##¾
##ര
##ʼ
##∙
##～
##œ
##แ
##っ
##て
##ち
##る
##エ
##な
##く
##た
##い
##ப
##し
##း
##テ
##ィ
##ヘ
##レ
##ক
##¥
##ᄁ
##ニ
##ⅰ
##ग
##ह
##ड
##ക
##⁻
##³
##ם
##ى
##ল
##ম
##と
##も
##に
##£
##յ
##マ
##メ
##サ
##ब
##ज
##ट
##ศ
##ノ
##キ
##₅
##─
##☆
##ב
##ג
##½
##ष
##ण
##च
##チ
##¬
##ᆺ
##ע
##ק
##স
##প
##う
##ひ
##つ
##श
##ミ
##ƒ
##ත
##∈
##ɪ
##ʔ
##⁺
##♦
##≈
##ホ
##മ
##հ
##ض
##ξ
##ɑ
##ʷ
##¯
##ס
##ט
##צ
##ן
##က
##こ
##ء
##ד
##は
##ψ
##★
##¢
##ћ
##ල
##ම
##↔
##غ
##け
##え
##ӏ
##မ
##ᅬ
##ᄊ
##ᅨ
##ז
##ʀ
##ɣ
##ು
##ま
##み
##お
##ไ
##⁵
##ত
##ව
##ख
##പ
##や
##へ
##©
##න
##گ
##ী
##れ
##そ
##ظ
##₃
##₄
##⁶
##โ
##り
##÷
##≡
##⩽
##⁹
##あ
##∗
##ϕ
##↑
##₀
##ﬁ
##せ
##│
##ℓ
##ª
##≧
##⁸
##ⅱ
##を
##♭
##अ
##आ
##⩾
##˙
##ⅲ
##₹
##⇒
##₱
##＜
##●
##№
##►
##er
th
##ti
##on
the
##en
##es
##ed
##in
in
##al
##or
##nd
of
##at
##ar
##an
and
##as
##it
##ro
##is
##ic
##tion
##re
##ent
##el
##ing
to
##ec
##om
##ol
##ation
##et
##ur
##ul
##ac
##os
##il
##us
##ith
##th
##id
st
with
##ve
##le
##ter
##am
##ig
for
##ati
##ly
re
as
an
con
was
##ere
##ts
pro
##em
on
##ir
##ut
##ad
##ow
is
##ce
##um
##im
##ess
al
##uc
##oc
##od
##op
##ers
##un
##if
ch
##ion
wh
##tr
##ated
##ot
ex
##ay
com
be
##ag
##ity
##tic
##ents
##ab
by
that
##iv
##ev
were
res
##ud
##ate
##rom
##ap
ac
##ain
##og
##st
at
or
##ch
##ell
19
##ng
pr
he
tr
##ted
##igh
sh
20
from
##ant
##se
##ou
##ib
##ment
dis
##ical
su
##and
##ine
pati
##ep
comp
##ip
##mp
ad
sp
ne
co
##ase
##ff
inc
##ia
##ies
patients
we
are
##ial
##rou
##qu
##iti
##ign
##ence
pl
this
##tor
##ure
##fer
##ous
##pp
##ary
cl
rec
##ge
##ans
##ard
##ver
##ear
##iz
stud
un
ind
##ore
ass
par
##ations
exp
de
##all
##tiv
per
##yp
cell
ar
##ress
##ort
##est
##ich
##ting
us
it
##ys
##ther
di
##orm
##ens
##ific
his
##te
gen
##evel
##ath
##ak
##ong
en
ha
pre
can
##enc
sy
ph
le
not
se
inf
met
##ely
##enti
am
##ast
inter
##ost
rel
ab
##ition
##ph
af
##ect
##ill
##ian
##ular
high
imp
bet
##end
eff
##ber
##ased
sc
me
sign
rep
ev
##olog
##tive
which
##gh
##av
##age
car
##reat
##ue
##erm
all
cont
##ist
##ance
##ish
reg
##our
##ach
##ose
grou
no
##ual
app
##ri
bo
after
##oci
##we
trans
##oll
201
##duc
##ight
##ord
ser
have
##lo
##ons
group
dif
##ide
sub
##ection
##ome
resp
##ative
had
ob
int
study
##so
resul
##ie
##ound
sur
200
year
but
ag
cons
str
tw
##ack
##able
has
also
##ub
pres
##ass
##ween
between
these
##one
##ates
br
man
##ive
mod
signific
10
incre
##tin
##ever
mar
##cl
associ
differ
##ied
fac
##ally
med
##ond
##ang
##rol
##yl
im
spec
inv
anal
##ind
significant
##unc
und
el
##uld
##ression
##ved
wor
des
their
cells
tim
det
cor
been
##ree
##anc
##per
new
dur
##ks
18
dec
show
two
than
##lic
##out
##cr
comm
may
one
incl
##ail
##ator
##amp
dr
dise
level
fr
treat
activ
##ected
##ater
##ects
##iss
out
mon
##cer
##ame
includ
up
pos
##ros
fir
more
anti
##ases
there
##ok
compar
results
##ug
##form
##ech
over
##ild
##ences
##ari
meth
gr
during
pol
its
mo
##na
##ating
dep
##les
first
fl
##tein
her
fe
treatment
##ms
who
##ulation
##ite
##ions
mic
acc
##evelop
##aus
##tim
##tions
##ace
develop
suc
id
control
##io
other
low
##osis
ris
##ld
cr
##ty
clin
##ne
##fic
##entr
##ational
under
##ile
##ik
##tern
##ility
time
##ized
red
disease
ins
pe
play
##br
##own
##ective
using
##ited
both
##dition
analys
how
syst
col
form
foll
##aph
end
es
sec
go
used
hyp
prev
associated
##00
##alu
protein
dat
years
##atic
##ures
char
follow
##alth
##urr
##act
##ors
factor
imm
ma
##ox
method
oc
##ined
when
##unction
bl
system
min
found
risk
199
clinical
qu
##rop
##acter
##gr
##ogr
##tain
##her
sm
##ays
##hib
health
into
##rec
##af
##yt
hum
she
##ough
##lish
##ym
mus
##art
##cess
most
##inal
12
##gg
they
##ult
##ectiv
prov
##ological
##ould
##ole
use
typ
##row
##til
sch
gene
non
bec
kn
produc
##ade
loc
gl
##ery
##ities
po
##ale
refer
##eric
te
sim
cancer
##ings
bi
data
##ogen
rem
op
vari
##agn
##pl
rev
only
dem
levels
##ma
ro
##ung
mem
##ric
##als
ear
coun
##ior
##ograph
analysis
supp
##ium
##old
##uced
perform
meas
ther
present
##aw
##rough
based
##gen
pop
##tal
ep
##iew
age
##lood
therap
well
model
##ix
##ane
three
compared
gener
identi
##ments
function
increased
cent
##ines
##ution
expression
immun
blood
##atory
liv
obs
such
significantly
em
my
so
tum
##ants
however
num
studies
human
ap
partic
15
wom
##ently
##ute
##ren
##ism
sugg
mul
##hip
##res
##ivers
##itive
##ice
##eld
##ization
##gan
##ron
##ology
fil
##idence
##ential
care
infl
##land
through
##ock
path
##fore
inhib
some
americ
sel
##ious
diagn
def
##ement
##ake
##ople
work
conc
contr
##ange
##amm
##oh
##ths
child
##ten
##arg
##ency
##der
pot
##erg
evalu
##tit
##uct
##led
##tical
##tig
##ital
where
##up
##usion
our
11
activity
##air
##ward
198
##ry
17
##orn
##ectively
obser
higher
long
determ
##ily
##ust
effects
fo
exper
pred
different
assess
people
nor
##ination
character
women
lik
specific
del
inves
##ible
including
##yd
##asc
sing
##its
gu
pub
lo
bas
16
##oph
identif
among
while
lin
cap
##ural
##ormal
##oma
cal
investig
##ause
second
il
val
##az
##ire
##ick
indic
##ody
##ife
##urn
term
00
will
14
effect
##round
repor
back
##ven
ret
conf
##ature
main
post
about
##let
##ful
appro
do
concl
histor
95
##ived
fam
vir
13
prim
references
occ
those
direc
card
##osed
rad
##action
showed
##cep
##to
##lex
fur
again
##are
##tric
##ision
##ured
impro
##por
##ool
##ory
##ene
could
sever
##eng
import
eng
##esis
disc
related
adv
##ury
##tics
##ov
american
##way
type
tre
adm
##ivid
development
est
##ft
cases
##rel
number
##ability
##earch
concentr
patient
##onstr
coll
four
##ins
##iqu
groups
mean
chang
pers
aff
##oid
addition
ii
cd
decre
factors
##itis
class
intr
##ob
early
further
total
##ered
exam
role
##oth
197
bu
##echan
methods
##tom
##echn
fre
mal
##ann
if
##outh
##int
##ise
find
prog
lead
maj
hos
##uction
##ah
rate
hyper
##ient
##onse
mechan
mat
school
did
##iter
drug
##ether
part
##ality
response
techn
##ize
univers
##ield
old
##ble
set
##och
30
descr
state
##aining
before
peri
##ains
major
would
acid
surg
##eter
samp
##ke
grow
ox
life
av
tes
sev
recep
bre
##ton
children
mol
multi
day
review
##ross
war
##ages
##ball
great
infection
world
record
##ety
25
respectively
invol
rece
sep
therapy
##endent
##wn
subj
prom
##au
death
##ues
struct
induced
##ascular
mark
comb
wee
prof
##ival
each
##lished
##istr
##arge
mut
predic
phys
within
lower
outc
population
men
plas
sol
##ustr
oper
syn
demonstr
##ince
##ouse
##mph
##omes
national
##ental
ci
tiss
organ
##ex
sens
ly
##ics
##sy
##tis
air
process
known
him
observed
micro
curr
##ists
tumor
##ason
receptor
##over
24
sk
rele
without
##uss
##ulated
##ves
requ
##ving
pat
##ple
ext
period
then
cy
##ividual
##ilar
against
press
##ember
inj
##ography
common
surv
##roph
##tid
196
##cin
##ness
following
important
vol
individual
hosp
##olic
small
lim
many
##ork
##ters
line
correl
normal
sl
##ats
##ucle
##cop
diab
design
need
##ps
cyt
ed
##other
ang
due
##osph
changes
increase
performed
consid
mg
att
similar
commun
cov
prot
them
condition
##xim
research
months
later
##itor
intern
less
reported
21
describ
##uary
ec
##emic
poss
pur
being
bir
university
ele
##mon
symp
##omy
several
molec
estab
frequ
sugges
##otyp
single
##cle
case
association
united
##ension
potential
manag
positive
wr
test
neu
##eth
stand
previous
##ission
bel
##acy
##ning
appear
states
alth
although
aim
##ained
##ier
sw
alb
foot
serum
history
any
like
##pha
south
##ax
star
caus
days
provid
##ets
initi
##ank
family
made
lab
##ams
bar
##oss
ir
000
##tained
beh
hem
##sp
##reen
vis
cre
##ately
primary
included
##und
hospital
mor
aut
##oles
##emia
particip
##tle
should
sequ
vs
##oun
fin
hel
general
chem
nov
50
fem
##20
##ey
bro
hep
symptom
antib
respons
qual
admin
fib
##oper
##ae
extr
##ner
##ically
er
inform
region
arter
cult
offic
##ames
##ties
serv
treated
##fl
ren
left
progr
##ced
##ternal
mm
##yn
identified
194
##ateg
liver
##ood
same
because
growth
influ
##lications
chron
effic
external
reve
bind
local
195
tem
metab
##ister
##ogn
cir
##red
##ores
##man
complet
##app
film
area
##ull
large
ge
##ified
lip
complex
vit
sit
approach
##atis
expl
evidence
subjects
contin
neg
##uk
hyd
##els
##ina
rati
dna
##bers
lymph
##ark
targ
stim
obj
##onal
##bo
##ired
series
##ised
##etic
abs
diagnosis
north
orig
##any
vers
05
der
##arm
repres
see
city
mass
born
prop
cle
pain
sus
since
plasma
ca
##he
findings
chronic
ur
flu
##xt
order
heart
ml
open
mr
##ste
fail
beta
##uch
football
22
##isms
survival
##uce
mort
reveal
trial
body
analy
relations
experim
cour
pul
stat
##vement
##las
##atin
off
six
down
##etes
100
##vir
resist
##ocyt
au
##ressed
species
##gf
##ces
calc
##ulin
##ither
##cent
sal
soc
la
tissue
indep
jo
album
sa
##atal
nucle
acute
001
inflamm
dose
##ensive
head
##iven
##trib
pressure
##ather
01
free
range
reduced
links
##vern
suggest
##ling
call
alpha
presence
##crip
place
23
you
five
emp
##tional
developed
##ground
right
##erc
cardi
equ
players
##erv
medi
mice
##med
lung
##ually
short
measure
add
disord
educ
diabetes
##lob
genes
mater
centr
season
genetic
prac
here
standard
##une
phosph
success
##ended
differences
tak
##sych
##zym
govern
##bs
mid
adj
##ians
hand
##itiv
ve
mortality
tel
interv
public
40
binding
##ode
information
##urs
ul
##sequ
various
water
team
##rome
##ta
contrib
thir
eu
gluc
##ra
anim
germ
les
##ler
dom
193
virus
##reg
behav
valu
feat
##ars
isol
##ience
##ison
even
joh
hiv
yo
medical
century
background
nec
##anced
synd
current
unders
production
win
decreased
relationship
surf
##ds
##iver
##aging
##ave
elec
mil
surgery
hypert
novel
polym
##asing
##cc
accord
sex
house
estim
vi
interven
enh
conduc
##eration
brain
whether
prol
received
28
##till
jan
ever
sum
techniqu
countr
music
ann
##anti
rand
ratio
##ney
stage
male
##roduc
super
young
measured
conditions
subs
report
##ident
flow
synth
26
studied
proteins
##orts
phen
##ns
symptoms
##uted
##ino
samples
support
pow
##tors
field
very
##ash
revealed
##ength
target
##usions
austr
mac
either
ra
loss
##par
proper
covid
##omic
##ances
song
##ague
##eu
analyz
circ
living
##istic
##ices
##inc
##cs
multiple
severe
management
psych
home
obtained
27
concentrations
##line
enzym
administr
allow
##osure
##omet
provide
deg
award
pattern
cross
har
according
arm
until
avail
effective
random
county
particular
##ensity
rates
hydro
near
know
##ai
social
now
##ostic
overall
coron
international
quality
##lement
diseases
strong
##aneous
direct
##acc
plac
distric
ov
outcomes
determine
##ification
##viron
screen
renal
thus
greater
best
occurr
##gn
cri
molecular
central
established
cop
concentration
prob
aug
preval
auth
##arian
##ese
##ont
##ocy
build
60
signal
demonstrated
##ativ
##king
leg
##iting
ach
pap
##erse
dependent
site
controls
##lication
##ley
became
stress
medic
syndrome
negative
##apy
radi
own
strateg
bone
change
##operative
activation
##ct
events
recom
##go
dev
represent
involved
##ris
##ides
##ales
evaluated
##ude
##actions
##ried
##ench
foc
29
net
##ril
transcrip
investigated
still
values
##xic
center
stre
regul
functional
191
##ially
saf
dys
mag
##tand
##21
conclusion
run
continu
##eters
shown
31
weeks
##ked
jul
##ours
##eptid
arr
arch
param
january
moder
inhibit
champ
possible
top
larg
##lyc
distrib
ill
enc
poli
rap
chrom
phase
##ocytes
march
##by
##cept
environ
identify
secre
statis
described
weight
members
proced
status
individuals
hal
volum
colle
##aft
final
index
good
value
div
week
confir
models
pa
##verage
carcin
##gin
doc
kg
##0s
performance
##ules
summ
eth
times
##alian
league
membr
discuss
##eph
##ones
considered
##aff
though
what
profess
result
along
##olution
##itivity
##monary
##vascular
##eline
determined
town
##ump
west
ver
law
##ways
often
bene
et
ques
##tice
given
surface
##atively
regard
##amin
##onic
ste
europ
conclusions
dim
independent
##yr
side
35
pass
district
examined
##ule
rh
##iev
ct
liter
john
match
##opath
mill
land
ter
##elial
##omp
##ably
vitro
exc
##eutic
##arc
recent
sept
##ored
resid
self
around
rats
available
proble
##orph
help
few
##ids
##amed
club
mit
understand
##work
exposure
whereas
os
##edi
size
soci
europe
followed
difference
bat
resistance
healthy
score
active
##asis
don
mak
cause
band
hom
dam
##ights
assessed
##ocard
##ancy
artic
camp
films
##ators
##odies
structure
##ellular
sil
outcome
ms
##elf
participants
##iving
former
surve
purp
2010
failure
insulin
increasing
##otype
##ca
##port
align
##oses
lit
elev
##pec
cur
hist
##ering
##iency
sn
reduction
mechanisms
metabol
##ipp
december
cardiac
act
prevalence
environment
constr
impact
breast
nat
previously
jap
tit
glucose
king
##read
better
real
poor
instit
june
focus
elect
objective
september
community
electr
##inant
bus
ref
therefore
##ressive
##ologic
sour
##yle
pregn
power
formation
administration
produced
metast
##osition
incidence
last
read
##nal
##omas
way
return
position
clear
transpl
median
release
features
therapeutic
##iam
##inary
responses
education
detected
alter
##ulations
called
evaluate
york
cm
##thern
material
released
government
##isted
immune
japan
##tober
light
45
event
mir
viv
october
compon
afric
plat
bacter
white
list
third
phot
##ense
coh
##itish
vill
ey
cardio
##ogenic
pulmonary
april
august
grad
##istics
include
##ef
dou
via
canad
##icular
cere
female
name
##ogenesis
hypertension
36
british
##thers
squ
pd
192
july
recogn
##dom
2011
least
improve
hr
##ographic
bur
iss
differenti
stro
cer
##active
##sh
special
##ount
##me
alc
black
ten
imaging
published
##ergy
another
career
section
college
##tegr
point
emerg
spe
##vers
block
might
##ges
32
##eti
enter
champions
##eral
##itary
2012
inflammatory
neuro
game
average
##igr
2008
systems
lib
33
analyzed
2009
##amic
##urch
key
mel
gas
much
characteristics
company
radio
caused
turn
volume
##son
across
neur
located
carb
physical
late
required
chall
conducted
kid
lang
##ention
prior
fat
##ints
english
exhib
##mber
##loy
surgical
##rh
##tine
frequency
pen
##ylation
areas
rapid
injury
sensitivity
progn
art
desp
##ochem
vivo
je
colon
likely
concer
played
every
nove
smok
##tically
miss
cardiovascular
service
percent
coronary
##aps
november
presented
births
highly
games
2013
2020
##estern
pharm
2014
member
opp
hypoth
##etal
ben
##amine
cycl
mc
origin
park
depression
detection
baseline
muscle
having
##ffic
church
##enced
dist
90
##uture
##itation
combination
2007
alcoh
kin
##emb
cat
mediated
mechanism
asp
80
##ral
drugs
diet
integr
##lor
east
##otherapy
led
mix
defic
said
efficacy
2006
amp
subsequ
##isting
##ounds
vascular
##terol
person
oxid
repl
##bid
despite
conn
##eal
membrane
complications
proj
vacc
investigate
##ument
tumors
##roscop
2015
promo
parameters
contrast
febr
##utes
##enting
influence
decrease
angi
stroke
trad
assessment
derived
transplant
reach
introduc
ic
##ysis
depart
##ends
purpose
limited
##ibility
34
assay
tog
toward
48
##uts
peptid
eas
od
prolif
vic
types
approxim
2019
artery
poly
little
behavior
##ished
37
iv
recurr
accur
program
##ana
successful
correlation
improved
together
##iratory
seen
##odes
regression
prec
##roc
##ending
throm
adul
versus
question
##opro
##tinal
##eding
food
died
2016
##be
inhibition
70
future
properties
bal
separ
glob
##activ
abn
ol
just
##ii
##ites
##izing
ventr
labor
culture
##ecting
underw
disorders
maxim
subst
##iness
190
combined
espec
port
monitor
february
does
##atric
evaluation
##ture
impair
epid
nan
##ring
literature
track
##ledge
transfer
ess
##den
log
75
##oplas
analyses
especially
distribution
invas
atten
scale
##fication
epis
eight
tom
additional
extrac
optim
##aster
won
##iological
##istent
transl
##enous
energy
dyn
##ables
training
oral
##fusion
##augh
expressed
make
##oxic
adult
tra
western
length
trials
phil
##lying
cost
ability
abnormal
half
lack
indicate
##yst
langu
reaction
lesions
skin
##ilt
density
enzyme
wall
station
intervention
initial
sites
establish
action
profession
wal
island
temper
##ulf
perip
##rosp
##emp
##ieved
alcohol
transm
full
access
##mi
sample
step
guid
sem
##uring
por
38
championship
cath
##rogen
party
nm
##oscop
##otid
gam
correlated
##itted
##hold
prepar
valid
mutations
month
activities
##ecu
selected
peak
knowledge
cs
kill
econ
2005
##olesterol
seven
isolated
fer
relative
##ining
broad
##ygen
##ying
heter
diagnostic
telev
benef
lig
containing
##of
##ief
##ove
underwent
services
##yro
carcinoma
son
##10
base
65
measures
iii
rat
apop
complete
tested
sle
recomm
util
2017
deliv
##lied
took
exerc
##ops
lat
2000
pc
ps
deb
##ocr
##abil
writ
rail
engine
##isc
practice
held
##pr
older
deaths
secondary
recover
sen
02
screening
ultr
technique
color
sci
began
rom
##ocyte
cohort
adults
vo
road
##ele
river
rna
##more
##eness
approximately
sequence
regulation
television
oste
moun
fed
aden
french
conven
famil
progression
altern
students
189
2018
useful
named
lear
dail
##set
observ
nit
rich
##anch
confirmed
pathway
defined
##ols
glyc
geor
##de
##tory
employ
##ote
gold
peripher
##ama
##utions
hc
##resp
upon
stimul
isch
##last
understanding
polymorph
mrna
##dl
##que
42
controlled
birth
lines
cellular
daily
experimental
biom
german
criter
toxic
cand
pal
dig
2004
##uck
diss
respiratory
neut
morph
malign
wid
kidney
##itch
aged
##orp
##omal
chann
pharmac
##urg
far
critical
natural
minim
acad
endoth
den
parti
##ections
collected
##yal
mot
##ink
prosp
##erve
##la
pan
leuk
agg
course
seg
antibodies
##ems
##terior
##riate
paper
##otic
tests
pi
taken
39
division
leading
characterized
testing
44
metabolic
ber
author
##irus
##ee
du
recorded
view
##agon
tissues
reduc
interaction
##rosis
replac
prost
hours
03
##istry
become
##ush
department
##mic
tradition
vide
interval
##da
amino
asth
situ
regions
##ask
myocard
antigen
infected
arg
##hood
suppor
indicated
animals
network
biological
##ising
cholesterol
provided
43
pcr
##atch
##ectomy
acqu
comparison
degree
antibody
survey
##ecutive
peripheral
recently
##umb
##esh
russ
elevated
##anted
##hyd
book
country
thromb
horm
visual
diffic
affected
signaling
55
##oster
ke
furthermore
cou
##imm
##arr
exercise
##olar
occurred
displ
records
remains
alone
applied
constit
refl
cogn
safety
transport
##uit
damage
##istered
##ayed
particularly
##dle
oxygen
41
adap
regim
uk
bio
scores
##ope
content
never
building
##etr
##ga
##col
countries
president
original
##unctions
##bert
provides
##ference
agents
bil
##aring
force
##atives
retrosp
capac
intrac
wild
##inated
resulted
chain
facil
diagnosed
relev
##ape
indian
suggested
built
188
setting
propor
cam
##rew
duration
spect
points
##kn
must
able
cho
##ounc
##nf
2003
grade
mich
cas
space
language
kinase
enhanced
##ogene
demonstrate
style
##idge
##rob
##dr
prevent
receptors
next
take
##ford
cup
get
examp
viral
las
served
candid
inhibitor
46
proposed
pp
making
rang
highest
host
criteria
lond
experi
impl
disorder
##alia
european
designed
##tosis
respond
hb
fund
04
necess
##ni
##ands
proliferation
##atitis
##avy
na
gir
ant
article
ax
##ara
km
cut
mouse
fall
instr
##omer
wide
experience
needed
##encing
london
##oz
whole
##ned
epith
2002
suggests
fold
distin
business
competi
search
##function
dav
confidence
##antit
society
##bility
##ani
47
synthesis
adverse
industr
completed
hy
##ateral
million
tur
currently
official
panc
army
reduce
jour
lay
##yroid
rs
##bral
attemp
procedure
markers
onset
cla
adjus
##ille
techniques
strategies
infections
consider
bp
##adi
##ector
player
cytok
counc
##going
##lin
suggesting
basis
2001
look
##less
##ots
patterns
ht
##rup
works
advanced
oly
som
application
##oprotein
repe
attack
##uter
potenti
49
remained
increases
enti
##respond
quantit
susp
pand
arth
mur
migr
clinic
##cence
correc
olymp
##ament
mun
rock
##ortic
media
above
52
64
##ula
##ening
##ners
##ze
lipid
estimated
acet
##bor
san
stem
##elet
processes
village
##ochemical
##ls
apoptosis
pregnancy
once
##aged
rac
##12
tu
shows
inflammation
ventricular
require
linear
round
transcription
##50
let
hon
structures
##osing
middle
##ires
military
inhibitors
##rees
severity
measurements
##onia
##inese
examination
##ards
discover
green
##elling
asthma
catal
princ
earl
china
emb
capacity
##pre
correspond
physic
que
mutation
excl
induc
##ique
54
temperature
hall
double
myocardial
improvement
functions
put
ng
problems
cover
fav
video
chinese
186
stimulation
populations
56
varian
fri
##try
global
rare
sports
##bp
resulting
postoperative
essential
alm
var
live
##ows
oh
regarding
##ata
fish
##oin
offer
sensitive
51
53
spectr
plant
chemotherapy
terms
##osa
grand
##ged
##aly
interactions
randomized
importance
cos
arterial
##eling
metabolism
systemic
gh
##bc
plan
council
prevention
fif
load
unit
##vi
others
roman
union
describe
scot
australia
polic
bron
ak
187
pac
past
multiv
delivery
##ips
##ike
diabetic
##ella
activated
ns
##enz
sleep
products
##grad
professional
nuclear
jud
soft
compounds
##enty
chromos
##fs
pancre
##use
court
##ared
##ariate
##ester
##etry
##ha
72
##fficient
dysfunction
pathways
##ounced
##oks
cast
sat
rather
father
##rin
##day
67
divers
bill
99
hepat
##agen
##bi
##nas
##estinal
consequ
behavi
##ky
categ
toler
face
phosphor
marked
working
##rolog
endothelial
restric
##tress
linked
repub
quanti
pair
ath
started
hol
57
african
##encies
cognitive
certain
##11
##occ
2021
##ulating
trig
express
accum
domain
##neum
personal
carried
nine
58
tub
gamma
teach
nut
cd4
mes
mer
princip
means
hydrox
calif
wind
profile
mental
india
##ients
##xi
aimed
rob
causes
chris
cycle
degrees
##aves
##roscopy
transform
suff
##eta
science
version
californ
##orpor
##ories
components
night
motor
prote
terr
1999
methyl
finally
formed
aud
appeared
##trans
document
strains
hold
summer
moderate
##pa
absence
peptide
yet
##ulate
##netic
##ives
england
males
royal
republic
##ochond
sou
sd
##arily
laboratory
transplantation
agre
##otypes
source
##cul
variables
##amb
vess
longer
##uv
rout
approp
##po
achieved
59
polymer
##ert
political
challeng
inst
command
affect
##ieve
smoking
fa
chemical
mainly
arti
muc
word
lost
##ils
pandemic
throughout
break
environmental
almost
california
project
##anning
programm
implement
moreover
technology
intra
##ington
director
##ytic
##ened
detail
datab
developing
room
##ka
street
iron
pet
##yg
const
created
office
questionna
calcium
dop
hs
northern
came
##ergic
japanese
##lit
fluid
##otoxic
63
##bidity
pneum
subsequent
majority
##ban
monitoring
animal
fraction
85
structural
##pe
upp
outs
sod
##orb
coach
hard
norm
kne
differentiation
directed
deep
##cepti
females
experiments
eyes
##ochondr
repair
interest
immedi
66
##rown
##ham
forms
frag
mother
interview
73
hous
ster
civ
aw
placebo
bg
##duce
##oglob
commit
inhibited
unc
directly
bound
race
62
frequently
assemb
close
examine
problem
wash
australian
regular
adh
families
identification
##for
ground
priv
suscepti
strategy
moved
##aine
##umption
plays
gal
operation
##wor
usually
atr
mitochondr
ball
unkn
generation
##fied
##ea
1998
continued
larger
france
appears
disp
prem
slow
68
detect
canc
draw
hepatic
fluores
##lation
##anish
obes
statistically
stable
##ifest
unknown
tal
##orption
alternative
terminal
recip
sold
pt
##take
specificity
yield
rank
##erous
internal
minor
conventional
nurs
communic
odds
##nel
##esth
prospective
molecules
protoc
injection
induction
gast
doses
tempor
modern
##ena
consistent
obesity
##53
cp
cad
upper
tour
amb
interventions
written
receiving
clus
##inity
canada
units
trav
##ritis
administered
hor
reports
##uded
##ift
##acts
##oxid
##used
muse
##ream
went
relevant
resistant
alg
##yth
auto
strain
##unch
##tian
gran
variety
##ya
quantitative
##ficial
##ethyl
##wh
begin
inn
##izes
clos
goal
fix
glut
election
##ica
recovery
example
##opathy
william
distinct
decision
away
##anol
procedures
america
conte
mt
responsible
contribute
##tre
##aria
appar
underlying
mild
exposed
diam
southern
big
wa
reference
96
woman
##asons
regional
##uel
materials
maximum
##uf
traditional
pm
resour
enrol
pic
recr
61
simple
relatively
libr
tnf
independ
necessary
embr
##field
78
1996
scienti
thought
1997
title
dl
adjusted
fire
##oids
channel
##ili
pig
genome
##ensus
74
divid
archit
ech
##ued
occup
medicine
76
mamm
69
sir
board
attention
learning
##itiz
claim
kh
text
songs
##oding
##enge
##aries
acids
neurons
fract
alum
bow
agent
substr
anxi
calculated
nature
extre
magn
fell
cerebral
museum
ss
accomp
gender
voc
##ony
humans
strength
modified
reli
medium
ble
composition
sars
canadian
generally
##ogenous
##ema
medal
ery
substanti
involvement
limit
assist
viol
vas
electro
cv
associations
tax
incorpor
variation
towards
continuous
hot
organization
##color
rou
biomark
authors
james
remain
specim
approaches
amount
whose
##put
component
places
bul
##ively
selection
investigation
intrav
civil
eryth
flor
##eds
memory
thick
movement
ray
##emy
88
magnetic
prognostic
sources
radiation
77
appropriate
bgcolor
##tile
##oted
electron
##lu
prognosis
entire
antic
ros
##opsy
compare
popular
##licated
sun
map
prostate
##li
journal
politic
intake
gall
adoles
mexic
1995
tuber
##co
##rix
mad
germany
story
chlor
##ophil
commonly
webs
minutes
rt
staff
decl
evolution
##eles
71
uptake
transmission
##ided
twenty
anxiety
##ida
hormone
##eli
taking
macroph
tool
ion
##icle
highl
##ba
quar
##equ
awards
occur
returned
specif
84
solution
83
discussed
franc
systematic
mixed
hp
added
label
retrospective
sin
86
george
##ania
haz
date
wood
dip
unique
##fr
maternal
##ago
institute
economic
recomb
##igned
##iles
hepatitis
myel
tv
images
tex
##enn
antagon
elder
nerve
treatments
##rog
exist
98
##icip
reviewed
below
vitamin
##ki
##16
tb
##ectives
sent
##ael
infarc
measurement
0001
irr
front
az
79
aer
infants
centre
##eting
municip
lu
##ectiveness
schools
proportion
vaccine
hu
joint
railway
hill
location
predicted
haem
paul
sexual
microm
embry
gastric
sound
defin
bay
1994
love
##urb
##isation
transition
82
consecutive
reproduc
recurrence
##ota
sr
97
commission
effectiveness
hemat
500
87
sequences
93
dog
##brid
tor
whom
indicating
consumption
##ady
accuracy
benefit
##iction
includes
##ediatric
rest
chol
chief
##inations
compan
##oscopic
adren
##otes
traum
##itus
issues
epithelial
ce
link
sulf
context
##ortun
##fac
92
##13
image
94
rab
extent
bacterial
##ought
##erative
married
programs
cc
invasive
divided
##lim
clinically
selective
89
##oring
##erved
##omb
1992
commerc
restor
percentage
ful
africa
##lycer
fore
address
dial
##ades
secret
significance
malignant
##ermal
architect
avoid
##oy
fetal
##amics
italian
rot
platelet
ens
frequent
stages
variants
plus
20th
gre
##avirus
facilit
collection
roles
hypothesis
##aint
abdom
##stead
native
account
conver
undergoing
hen
aortic
metal
noted
branch
lou
reached
liqu
kingdom
carbon
bank
cf
blue
los
##ror
lap
1990
morbidity
##teen
teams
##ometry
##tra
interes
##ket
frame
province
dm
maintain
albums
##tee
stop
##ify
##ception
##rist
##iology
##activity
expected
##anes
##back
carri
anth
toxicity
announced
pathogenesis
conserv
nom
resection
reson
spread
exch
chap
fit
regulated
secretion
david
promoter
worked
marker
##rition
##thing
urinary
jack
opened
dimension
too
##uration
specifically
##oming
##tation
trip
gave
lact
cav
##arin
cryst
predictive
epidem
matched
bor
##unt
1993
##ette
forces
ple
mountain
compos
recommend
thor
##dm
mri
##tered
hund
##elines
questionnaire
workers
earlier
episode
kore
##abor
numbers
supplement
construc
184
mu
fig
inh
fes
##mb
neurop
move
product
neph
challenge
exhibited
hcc
corresponding
##iate
theory
introduced
##time
matrix
##nic
route
physiological
enhanc
##off
rr
hundred
descrip
##ori
plasm
depend
##ometric
interpre
produce
computer
bmi
##odyn
start
##itt
weak
sea
##wide
##bl
books
##ococc
statistical
##ger
safe
strongly
81
##oe
##reek
count
remov
eye
multivariate
widely
protection
##idine
##illary
classification
partial
potentially
sodium
##eck
cerv
difficult
##aling
##east
mach
adip
police
ather
minister
bord
predict
da
ultras
iso
intensity
bond
solid
intracellular
mas
attrib
instead
##22
185
pg
1991
atp
##nes
esc
tubercul
regulatory
assays
eastern
probably
prefer
##oon
battle
thyroid
relation
autom
done
artis
##ano
involving
defe
##era
daugh
onc
pu
conj
segment
reactive
adop
infarction
dil
pil
concept
hybrid
##itable
elim
contact
elements
##ij
cord
crim
metastasis
##otide
kar
##etric
sam
generated
parents
news
##ete
orth
website
ven
fc
ta
your
core
##azine
cyp
oxidative
fas
rural
##14
##olip
bud
elderly
biopsy
convers
simult
braz
fatty
advant
obstr
joined
bri
lv
##rote
fal
fact
melan
slight
##gar
##get
simultaneous
##utaneous
assembly
resolution
vel
mutant
ga
neon
genotype
construction
bronch
##down
barri
##nt
guidelines
library
cancers
progress
##anded
mary
emergency
antibio
##ologies
placed
##rophy
##19
acquired
gest
threat
revers
##orrh
implant
reconstr
seem
##amide
lesion
coast
lake
##iral
##ready
##oral
tend
analog
serious
say
democr
org
jew
anterior
##rd
towns
predom
neurolog
substit
wil
lt
phenotype
rib
degrad
##tration
##esized
nas
already
satis
cu
igg
##edic
##bb
##arb
policy
occurs
experiment
##reh
deficiency
gun
mell
subsequently
dark
emph
egf
jus
relig
initially
buildings
allowed
emo
committee
##ches
wave
subt
applications
illness
coupl
stri
pit
festiv
##uls
reducing
##ville
heavy
alumni
guit
##pt
##bre
numerous
eg
flo
mitochondrial
chair
targeted
hab
adhes
optimal
alk
cong
stimulated
needs
gradu
basic
fast
mechanical
alex
enrolled
##ware
poll
targets
resonance
brazil
abnormalities
introduction
##18
fel
##onucle
bm
speed
##xp
##ements
private
##acted
god
##lan
##izations
specimens
cann
##elled
dele
founded
box
##ker
aggreg
lymphocytes
oil
leads
accumulation
existing
##ulty
largest
ty
liquid
nic
recognition
conv
ifn
wrote
paras
pay
prolong
except
mi
notes
efficiency
disch
plants
##urity
stay
##self
impaired
playing
ischemic
##rich
element
dut
confirm
come
tomography
lys
himself
##ius
pancreatic
##ett
dietary
##isions
online
gastro
farm
distance
processing
##iance
cytotoxic
migration
database
##ibly
outside
experienced
subject
tun
historic
mis
got
##cler
hit
##ectin
robert
russian
##enic
1989
changed
scr
ts
washington
invasion
swed
hcv
183
lipoprotein
van
manner
kr
##imer
going
tro
##burg
induce
elected
pediatric
behind
hour
1988
ah
providing
companies
campa
##astic
reason
nod
keep
agreement
intermed
failed
burn
spanish
give
##pati
fully
pse
enzymes
tract
tuberculosis
alterations
##enth
jun
systolic
bc
task
footballers
ldl
uns
opportun
transf
##cutaneous
##wood
ot
uncle
algor
##17
06
##grou
ham
nf
chromat
fourth
##aces
hf
intravenous
graft
algorith
bot
##ione
saw
logistic
sed
##di
bacteria
clim
neck
beginning
##15
##care
heterogene
compreh
superior
theat
thomas
younger
##osin
feature
therapies
##oscler
cox
basket
primarily
##rs
differential
arts
academy
sac
originally
wife
extrem
fm
abdominal
extended
##berg
mos
anat
successfully
costs
aspects
issue
##ibr
t2
tourn
unl
tumour
parl
deriv
stability
household
fibrosis
ho
pros
ds
commercial
urban
respect
relationships
arab
counter
##ounts
nutrition
kind
campaign
mom
pseud
annual
tc
compl
victor
brown
##ala
##aving
recommended
recognized
##inking
##apping
##crib
impairment
##ceed
objectives
appearance
##uries
practic
always
gp
contains
nh
##isa
nav
##men
remaining
myc
##oney
bleeding
protocol
pyr
##anth
attr
##onin
neigh
altered
##ointed
susceptibility
constant
spati
blind
reactions
infer
allows
finding
##arch
tas
cort
metastatic
##sis
##eless
subun
reading
microg
##ona
mob
veh
trib
rights
##olved
basal
surround
overe
carry
market
pack
inhibitory
hg
explore
md
polyp
cys
excess
cultures
mellitus
##idae
hair
episodes
variable
heat
subm
growing
sched
michael
##inson
pneumonia
parliam
##ohist
gi
isolates
zeal
chest
##akes
spont
##kin
charles
##erb
launch
91
polymorphism
solub
bed
##tingu
guitar
bab
gel
complement
edition
efficient
completely
##otrop
latter
mand
allele
phosphorylation
sand
reb
prepared
exchange
chromosome
polymerase
device
sess
##wer
##itory
ship
signs
virgin
extracellular
##ocar
spontaneous
dc
reti
##ises
cervical
##obacter
##iatric
persons
smaller
platform
1987
eventually
overexp
ran
ju
parliament
adher
healthcare
immunohist
##iation
supported
digital
300
implications
parts
newly
##bal
favor
##icles
retin
interfer
rod
aims
bad
ratios
##ocl
benefits
brother
sud
sequencing
##ura
07
zealand
##okine
none
debut
diameter
urine
promising
pathological
constitu
radical
occurrence
ord
##crim
jos
##stream
spinal
candidate
##bit
repeated
signed
fill
speak
##argeting
choice
##ias
hip
##ypt
##inate
financ
protective
##iers
venous
rhe
rapidly
##tp
##ontal
##hi
##uation
##cher
sho
operations
ru
income
##athy
competition
suppress
basketball
referred
##loid
##uments
characteristic
pla
christ
vary
extensive
ck
##ancies
math
recurrent
brief
targeting
accept
##itone
happ
closed
180
agon
cin
meeting
cab
hla
distingu
vac
psychological
industry
admission
08
presentation
1986
articles
##oxide
atrial
##ophys
mostly
ig
ib
##ectal
foreign
ure
neutroph
##itz
achieve
federal
replacement
infusion
shar
venti
##ada
ring
##tious
##umed
subgrou
##oglobin
##craft
##enia
manifest
appointed
coli
##unte
progressive
marrow
##wr
##adder
frank
louis
serve
killed
complexes
knock
nearly
hd
daughter
discrim
molecule
microscopy
cb
clar
intestinal
determination
requires
itself
pb
orient
recombinant
mess
affinity
volunte
assigned
perm
##reshold
##works
focused
##yc
leaders
1985
insp
##jection
sectional
##therapy
curve
computed
independently
lateral
##ophag
olig
luc
immunos
meta
##alpha
seems
compound
starting
1980
##itin
obtain
quick
receive
##fa
cytokines
preoperative
gain
##phal
youth
comparable
polymorphisms
master
conference
cis
rise
soon
ire
removal
ves
manuf
skill
comor
pool
##ita
medication
illustr
adequ
efforts
ip
##rought
christian
olympics
ba
largely
biochemical
##char
manufact
dimensional
##tenance
ethnic
gly
cereb
employed
festival
1984
carol
##lands
estimate
childhood
##nis
##times
##wise
parall
copd
square
matter
##a1
feas
##osal
ultrasound
nerv
coe
##beta
##bour
##iform
##itals
hdl
stor
##anned
texas
1st
feed
collabor
##ran
variant
hazard
resources
##ept
max
dynamic
italy
predominant
##olf
##ola
die
mp
separate
fluor
atheroscler
today
##tility
maintenance
##ny
classified
ampl
##ece
earth
profiles
immediately
chic
##itively
asian
ovarian
subtyp
belong
coord
dynamics
predictors
accurate
threshold
##gs
##ulatory
histological
proxim
circum
donor
artists
showing
broadc
##leuk
adjust
##apse
ker
##ret
##weight
cro
##uting
collagen
##esia
laser
accep
spectrum
capital
##eletal
cortex
communities
##edd
biomarkers
spr
historical
incub
cluster
##iff
09
wound
nar
##ado
##erson
fluorescence
physicians
##truct
stations
promote
kine
##uz
legis
additionally
census
student
scientific
institution
admitted
bey
enough
peter
##ologists
ana
recipients
##ested
##ozyg
##ematic
ni
##ads
cruc
posterior
represented
substrate
##asia
##aper
##ests
variability
bridge
fair
routine
girls
##lasts
neural
burden
writing
##artic
dead
intensive
motion
veloc
anesth
recru
height
ireland
##ocks
cultural
raised
excell
seat
neoplas
breath
##ytes
operating
##rine
##sc
nation
##rect
##ontin
aircraft
missing
sar
communication
##25
leukemia
mode
##osomal
macrophages
goals
layer
conclude
neutral
vessels
##key
##vel
fle
##rill
temporal
sometimes
##ansion
risks
cultured
engineering
perce
ram
friend
isra
dest
disrup
acetyl
##ios
richard
##uria
replaced
asc
smith
mind
colorectal
##rate
inside
shock
##iring
tournament
operative
cham
sten
coronavirus
##gia
150
##ict
tail
staining
##usc
possess
silver
catholic
delta
attach
championships
##olytic
indicates
##23
mexico
potent
tolerance
##ighted
arthritis
paris
occl
1983
diast
##ander
##pass
contain
saint
##wards
compet
##ario
eti
decline
circulating
visit
acting
interleuk
behaviour
pregnant
gard
register
ligand
nam
planning
senior
csf
true
web
electronic
hospitals
worldwide
##ighting
tools
tetr
nk
squad
professor
##cents
##elium
intell
surviv
##letion
cytokine
comprehensive
##inger
##obic
composed
##eur
1982
##itud
##ped
degradation
sti
consist
genomic
reverse
li
fusion
trop
scored
##uctive
antig
typical
nervous
##cles
uses
fab
oxide
publish
che
hop
prolonged
ca2
girl
##oved
henry
delayed
residents
diff
software
gar
kapp
necrosis
pret
vein
##oscopy
users
parallel
defects
words
np
challenges
sperm
unclear
listed
interleukin
stone
gang
##ologous
aa
##ectious
row
musical
reh
possibly
crick
voice
##osterone
arms
##ocarcin
400
peptides
thirty
flex
writers
lc
##rive
##eler
micros
adolescents
switch
constructed
chromatography
running
##osine
thickness
unf
igf
##empor
slightly
closely
pf
artist
##istan
reviews
adhesion
singles
##rac
##ocardi
possibility
fibrob
comparing
educational
##27
valve
congen
##ocation
##rovers
genus
contained
direction
replication
twice
equival
baseball
obese
##mm
intermediate
maintained
hun
hap
infil
##anged
##dh
ice
smo
behavioral
finished
classical
promin
beyond
ped
##mark
##odynamic
##upp
financial
academic
nucleotide
gab
##val
fol
substantial
##iaz
implementation
magazine
vul
rein
accompan
ban
deal
job
anc
fragment
whe
fort
operated
influenced
inser
trade
diastolic
##9e
equal
p53
si
##osp
antioxid
represents
colum
##lets
phenom
spatial
foundation
nons
node
tell
correct
occas
signals
metastases
bish
questions
partners
controvers
##ini
actress
egfr
infectious
conform
neuronal
1979
notable
cum
theatre
trauma
endogenous
##ja
electroph
presenting
prediction
##np
lapar
ast
governor
depressive
longitud
##ato
120
border
boy
ace
##olysis
##no
lum
##va
rug
spring
1981
hydroxy
hus
brought
randomly
residues
electric
autoimm
pel
##eg
inher
friends
bh
rheum
cold
personnel
##ylated
consisted
benz
##ero
irradi
opening
##ocal
albumin
##ifying
##ensin
##iger
##well
##ucid
##hg
##ogenetic
echocardi
domains
security
contribution
ischemia
observations
##oxy
hind
fung
##afts
pk
executive
vegf
cd8
singer
##roy
##ymp
mh
##wan
initiation
vaccination
ultim
particles
rating
pathology
suic
mov
##break
fresh
surge
technical
##unk
lord
removed
hipp
leader
apparent
knee
martin
practices
prin
##rot
transpor
##gian
##lr
sovi
dominant
##udes
##igan
lep
centers
corpor
##head
trend
hemorrh
officer
lie
##certain
dual
hung
amy
alle
concluded
smooth
21st
lived
studio
##40
bol
entry
hands
winter
lymphoma
##oms
positively
##atus
nanop
property
gon
pas
##elves
##oke
methylation
cul
ans
3d
producing
causing
elucid
watch
organic
ll
##onomic
virt
ken
cust
olympic
eb
forced
##opic
doub
phosphate
fet
nursing
latin
legal
lam
analysed
cred
abund
om
lar
tgf
cirrh
improving
recording
asked
cd3
enhance
sav
antigens
##fect
mission
quarter
meaning
expansion
1976
inters
prison
##anta
politician
##enza
blot
periods
variations
##opo
##organ
spir
valley
spain
1978
##usive
bes
typically
perceived
virginia
sv
nad
gc
forest
navy
##uled
recommendations
graph
##umab
sufficient
chicago
proph
mmp
nin
observation
critic
aspir
makes
airway
boys
fixed
##ging
zone
shap
dram
disturb
1972
##pan
ut
stated
transcriptional
balance
##oked
##ockey
felt
conflic
attempt
turned
cortic
##entia
managed
expressing
##ophage
featured
train
##oa
display
##oxin
viruses
##urance
writer
##isp
##hire
shape
accompanied
hypox
minimal
##actic
describes
##mia
dos
create
soviet
shot
roll
1975
wat
##apped
summar
persp
iran
travel
decided
vessel
1970
fear
##tial
distal
##ething
drop
##idal
channels
1974
discharge
actions
ok
scler
attenu
##flu
##aryng
soluble
##24
comed
purified
preparation
pak
tox
pv
traff
establishments
suitable
semi
##ocrine
table
##cy
devices
awarded
root
longitudinal
contract
glomer
wanted
characters
actor
mount
transient
benign
immuno
##illance
promoted
##sa
bilateral
estimates
microb
spent
##intestinal
##tures
perfusion
##rising
polar
demographic
excellent
##oned
charge
something
absorption
diverse
stabil
##load
note
shift
sor
persistent
1977
##ochemistry
glass
aids
beneficial
19th
malaria
insu
islands
suppression
##tood
characterization
effectively
##ien
adherence
page
##d6
complication
carotid
representative
velocity
analyze
discovered
vector
reliable
intervals
architecture
consequences
rid
##oline
gastrointestinal
##28
reconstruction
##ectivity
captain
injuries
schiz
##hen
microgr
forward
detailed
neurological
##itoneal
interesting
winning
clearance
##b1
guide
##oglyc
##band
fine
catheter
framework
crucial
##30
integrated
sustained
fox
attended
agric
contrac
irish
##itant
recruited
fu
dental
bios
surveillance
##ss
becoming
##uses
occurring
##alities
participated
ages
##ua
enrich
think
tam
discovery
understood
aid
##arth
door
elevation
spectrom
##enchym
seasons
##ifications
##born
##lip
columb
ash
dutch
cod
partially
explain
gro
sought
guard
networks
cytoplas
##oclonal
bladder
##aline
perman
bypass
##west
cortical
salt
ethanol
florida
1973
producer
believed
dro
clearly
thorac
##igible
##iest
agricult
summary
dementia
##point
uter
feel
##thal
sets
strati
milk
1968
##heimer
fracture
infr
nucleus
##ensis
congenital
dogs
##ora
dehyd
description
buff
consists
##patient
era
nanopartic
why
soil
drum
doctor
manager
disapp
tyros
reporting
##eas
##cribed
neonatal
reasons
##ylv
##aker
brit
thems
classes
wales
suspected
gm
defense
125
##yan
neither
2nd
extract
##ovirus
themselves
principal
money
prime
industrial
psychiatric
mys
consum
##azole
##tif
parent
angiot
thym
extraction
##iently
swe
dh
want
##bur
therm
##lasty
mathematic
diversity
##atures
##aught
situation
cities
monoclonal
##ko
deficient
shor
supporting
##ender
##acent
algorithm
hpv
vocals
incident
##zed
##ophageal
##ipl
offered
membranes
definition
##38
tree
covered
##ogens
lev
bass
##omics
ger
##att
statistics
t1
##rotein
faculty
extra
179
angiotensin
spin
##transfer
fever
##vis
##ologist
hockey
rugby
asia
arteries
1971
editor
##genic
nc
##treated
explained
documented
hypertensive
alz
##mer
purch
egg
dialysis
absol
##gal
optical
morn
##uty
vag
entered
chart
continue
capable
aneur
##26
storage
excre
##issions
##uvant
wing
minute
verte
rose
ont
volunteers
mont
russia
lowest
inner
drama
##iro
drinking
##ensions
lic
mention
affecting
empire
##activation
congress
actin
depending
stock
##ye
intact
follows
sister
contempor
sup
organs
##ache
ranging
validated
plate
##adic
angeles
outbreak
##ylvania
scen
aneurys
greek
##ken
touch
##roscopic
##ostasis
output
fields
propose
expat
precurs
##adium
tob
prominent
facilities
developmental
share
adequate
##rophic
considerable
queen
fasting
##entical
driven
nick
##irect
##otomy
thin
synthetic
identifying
stenosis
1945
alt
morphology
##thesis
proximal
creatin
hbv
alzheimer
1969
joseph
religious
inclusion
beg
offers
pick
organizations
nt
##draw
carolina
bis
supply
capt
##aints
radiotherapy
democratic
immunity
controlling
asymp
autoimmune
satisf
depth
##itude
##ws
consisting
behaviors
simp
##regulation
hydrogen
influenza
melanoma
##quar
delay
##ocarcinoma
##acchar
maximal
equivalent
pathophys
withdraw
##board
##ilep
sarc
##omm
settings
creatinine
markedly
bring
##reatment
mothers
revolution
usa
teaching
mmol
##ocamp
oct
dry
##ques
aging
angle
py
pilot
exhibit
donors
emotional
encoding
haw
acceler
retinal
symptomatic
flight
reform
explored
adjacent
coupled
code
check
similarly
distress
##za
translation
entr
cit
destroy
retrospectively
oxidation
indirect
feeding
mim
emerging
axis
##stein
lives
pacific
phyl
penns
newsp
caps
trim
municipality
##fe
nurses
owned
allowing
##mar
takes
varied
physician
mmhg
secretary
##otypic
told
1000
encour
subunit
honor
apart
fibrin
settle
cris
rehabil
modification
##aled
mv
##ott
##tery
weekly
amounts
coc
trail
presents
metabolites
rhyth
bell
poorly
##uan
identical
athlet
##wa
multic
bib
displayed
ended
##ococcus
conjug
##29
##aemia
##tomatic
##iol
##ycin
##airs
von
##clc
positions
advantage
bip
surrounding
1967
##agulation
##people
comorbid
##rocytes
pharmacological
interf
encoun
proved
mb
##gl
floor
pin
moment
rar
crp
pennsylvania
equip
##iano
marine
granul
##rane
theore
##ectors
arrest
measuring
##70
habit
stra
ras
##exp
pip
fifth
morning
legisl
rub
skeletal
philos
cond
predictor
overexpression
shared
chi
1966
regen
##ophren
biology
antagonist
drive
immediate
names
mum
sections
sf
dub
extracted
##err
localization
cele
endomet
correlations
extension
probability
reper
experiences
##anda
investigations
##ipped
##ming
adjustment
memor
##avage
##han
neighbor
advances
plans
1964
dex
##60
bon
schizophren
finish
##iveness
mineral
degen
nr
triglycer
morphological
effort
##angi
##tish
lymphocyte
uv
category
##ilities
shorter
ow
##gi
##axis
pulse
decreases
pharmacokine
attit
steps
##osomes
tyrosine
increasingly
elisa
dors
conversion
survivors
m2
##aken
shif
hippocamp
relax
candidates
frequencies
skills
limb
concerning
prelim
comparative
exact
approved
restricted
ranged
athle
deletion
cx
airport
hear
##totic
accepted
fight
isolation
performing
derm
substance
narrow
##ela
accoun
meet
rule
tri
parad
pathogenic
transduc
cub
runs
repeat
panel
lps
cn
##80
tg
existence
##iling
treating
1965
delivered
rain
facilitate
painting
##oti
##nam
disability
minimum
counts
xen
spl
philipp
abuse
##ses
robust
celebr
jewish
sampling
onto
thereby
##ocytic
1960
machine
uncertain
##oli
township
##iary
solutions
leaves
asymptomatic
ckd
perme
synthesized
labeled
reflect
##pler
expect
dramatic
antioxidant
lp
portug
250
##ova
prince
ships
han
affects
decades
idea
chamber
leaving
elections
determining
error
rheumat
residual
##fully
sudden
simultaneously
socio
tab
moving
##enter
ways
ket
defect
osteop
ancient
justice
##urally
ub
programme
qualit
ads
lee
##hr
induces
##clin
antibiotic
spectroscopy
smokers
##icin
bang
improvements
magnitude
seiz
retro
##ux
concerns
functioning
localized
crow
extremely
atherosclerosis
ventilation
easily
pad
presid
##eme
explor
implicated
##ito
regulate
hemoglobin
cvd
quickly
scottish
plot
rig
forty
transferred
##oor
interferon
barrier
prophyl
##etts
din
bac
matches
heav
demand
option
hm
##view
distributed
contemporary
nations
h2
##aptic
beat
ones
##atase
vehicle
korean
##awa
##ulum
preliminary
limitations
##itol
assisted
murine
houses
giving
##o2
things
cirrhosis
rehabilitation
##enger
column
citiz
hypoxia
transcript
##acco
nsclc
##ansas
passed
carl
bodies
yell
instrument
suppressed
dar
requiring
##bridge
acts
prize
trigg
launched
rc
resc
hence
fati
greatest
aven
aggressive
leave
utility
##azz
cytos
##eps
##entially
##ented
##regulated
tac
parish
electrical
##iled
johns
lot
polish
speech
dance
marri
defeated
##tition
estrogen
epilep
absolute
bishop
mah
fred
##transferase
discussion
scar
sense
items
wt
mouth
interc
##57
formal
regimen
##amous
cooper
junior
##anine
poland
##omat
immunosupp
healing
pure
expatriate
vin
ongoing
split
equipment
##ials
##ping
shr
considering
##atid
fractures
tag
pairs
##nia
##isition
gap
##ellar
options
categories
enhancement
##iana
sport
termin
seed
expanded
gland
genotypes
oce
##side
diffusion
stimuli
concom
domes
identity
assessing
pron
##iang
##ycl
##water
murder
remark
elic
infant
standardized
coding
stadium
##term
amyloid
lith
pall
##ears
footballer
visits
spor
standing
transformation
couns
publications
##umin
brig
willi
kir
steroid
occasion
phenomen
permanent
spectrometry
powerful
##90
hospitalization
##abilities
obstructive
tm
glycop
##dp
parkinson
concomitant
carriers
representing
overl
##plasia
histopath
lif
noise
1920
##ocellular
institutions
##rium
availability
circulation
protect
hearing
heterogeneity
spot
auc
forming
planned
standards
castle
##oxyl
freed
dependence
medications
eosin
##ogram
merc
becomes
conserved
ww
probe
assistant
upd
concern
##ceeded
##isco
sera
lac
mn
thrombosis
climate
err
scan
loop
brand
sinus
arc
portion
002
##hea
michigan
villages
define
scotland
involves
##mal
##ersey
politicians
participation
attend
predicting
reserve
negatively
crystal
tobacco
tube
stars
##yer
attributed
practical
nanoparticles
##omers
mobile
knew
marg
bias
casp
scoring
biography
fiction
administrative
mutants
##areness
designated
thr
fewer
##abs
##isters
edward
##auc
innov
tib
unus
##odefic
##atum
champion
serving
1963
##ez
tai
separation
peace
##cephal
yellow
prep
kil
##min
korea
cz
##ugg
predominantly
##rous
1962
injected
kda
swedish
immunodefic
veget
lifest
prevalent
colony
##road
sib
lew
ka
epig
hur
tan
locus
##ador
valuable
veter
regiment
williams
##oside
coverage
##ulative
trained
ohio
vaccines
validation
implantation
beach
##ozygous
bit
worse
remod
comedy
rules
internet
requirements
fiber
angiography
nodes
feet
thous
sab
jac
awareness
demonstrates
wrest
vulner
consult
plastic
coming
enl
tracks
##sk
##opoie
coefficient
##entive
##eptide
mammalian
coch
hong
movie
##enal
highway
bomb
intellig
##osity
acquisition
dup
fatig
chick
anne
irradiation
##ardi
1944
##ji
spirit
bost
emphas
undert
sciences
reduces
adaptation
##tering
cyst
gallery
pitch
officers
characterize
3rd
edge
promoting
jersey
derivatives
victory
##achus
##igar
nasal
stan
israel
va
##itan
comment
discontin
locations
##ialysis
exac
conservative
restriction
modeling
adopted
##1a
dedic
vice
gy
constitution
##ohyd
distinguish
manifestations
amplit
fash
metall
ministry
uc
epidemiological
husband
##nea
modulation
looked
leaf
charl
##vine
ukr
motiv
carrying
rp
##adel
partner
jer
##ira
argenti
regulating
ln
dend
conduct
separated
helped
##ervation
overc
suffered
retri
false
emission
flav
kong
##the
compart
##burgh
##ayer
junction
varying
columbia
recruit
actual
aqu
flag
concurr
newborn
researchers
undergo
exacerb
figure
corps
britain
ald
limits
##elle
registered
1961
reproductive
boston
bob
##54
recovered
sul
evaluating
pump
fibrill
interpretation
##zen
ze
##matic
philosoph
quin
##aka
orches
zinc
sig
territory
rv
mcc
##oo
transfusion
kept
##olism
portal
actors
dan
store
rb
##ocomp
cardiomy
vision
satisfaction
reactivity
##osen
progen
excretion
looking
emerged
kent
fashion
dimin
adenocarcinoma
##iologic
abor
tp
##factory
slo
contributed
influences
volumes
laparoscopic
entertain
believe
##yte
agonist
##ophosph
subgroup
consensus
##fort
##operatively
##enchymal
ulcer
cry
desc
dw
micrograms
manip
decade
massachus
uniform
initiated
relapse
fun
jones
tt
eligible
interviews
##inois
composite
##steine
schizophrenia
massachusetts
wors
005
bowel
segments
stories
promotion
allergic
mature
##ausal
extracts
gestational
attempts
isoform
domestic
technologies
##ilateral
##ichia
dopamine
compens
adrenal
1942
##opol
##rey
unp
classic
saliv
isl
formula
illinois
nether
ultimately
##elin
##onym
compr
intended
fibroblasts
bile
hepatocellular
##ees
implemented
hex
##ald
sph
gained
fifty
##omon
1956
##elve
fatigue
##otropic
##aya
##house
corn
epit
##olin
preced
nitrogen
##acin
trends
cycles
1958
sett
georgia
etc
##tum
##emat
actually
##amps
##ico
glycoprotein
rif
doppler
##ram
##opausal
thermal
suicide
##clinical
clinicians
generate
percutaneous
relevance
homeostasis
tried
americans
1950
gut
connected
##utation
bd
incubation
##opathic
fatal
osc
steph
suffering
screened
##ocated
1948
lh
clubs
insights
1959
remission
subc
oxford
discre
golden
##anger
muscles
examples
temple
##ali
commander
178
scanning
twelve
winner
antibiotics
retired
jean
##lad
storm
##ancing
##jo
##acting
qualitative
tumours
famous
certi
##veolar
regardless
lifestyle
177
sensory
##onuclear
##elets
nitric
ensure
greatly
integration
theoretical
proven
sustain
ny
resource
stent
occlusion
fellow
chairman
herit
adjuvant
databases
install
##ascul
phenotypes
##ecal
##omo
favour
sportspeople
enab
preventing
professionals
glutam
##ider
##onto
aggregation
##vas
##chron
bag
unlike
squamous
peg
hers
immunodeficiency
##che
determin
marriage
flat
validity
nonc
##erves
strom
cg
wides
supports
##opes
copper
##my
##oir
akt
dv
plaque
saline
medalists
vital
observational
##k1
utilization
chosen
warr
subset
turk
chor
phenomenon
winners
prevented
supplementation
osteopor
loci
surfaces
guided
representatives
deliver
##pread
coal
##ocytosis
cigar
highlight
snps
hope
3h
##oic
inferior
femoral
##vic
abstr
lem
neutrophil
aberr
indices
incorporated
opportunity
gli
apoptotic
##mas
##bury
##lav
multip
letter
changing
participate
pun
##mann
opio
1957
##omical
photograph
##ao
bearing
horse
projects
purs
1940
1943
1939
ki
tight
##rid
##isons
##pped
untreated
endoscopic
hotel
sail
hemorrhage
agency
particle
pod
stere
organisms
widespread
immunoglob
dani
alleles
biops
quite
bic
1946
##elihood
finger
##ll
##aryngeal
##mental
##iotic
unable
##opoietic
##mond
netherlands
hapl
ablation
fragments
pathogens
viet
obl
##insic
decisions
##iar
anton
organized
##osite
ethyl
##illa
gives
chapter
attenuated
aver
trust
##eval
clean
sepsis
easy
rene
1941
rough
##uous
bovine
##dehyd
crc
differentiated
immigr
mayor
volt
walking
destr
sympath
abol
applic
viability
##inea
johnson
##aphyl
anemia
ank
francisco
##hd
##worth
firm
trac
picture
labour
cannot
lob
##eed
advantages
solv
phospholip
##agul
biomarker
marc
##gu
antimic
hypothesized
facility
idi
nac
laws
symb
hydroph
##onti
gradient
##uitary
creek
thrombo
##nat
quad
susceptible
##uth
endemic
perspective
1980s
##ropol
grown
methodology
estr
violence
rheumatoid
escher
claimed
straight
##dna
chd
##ston
##illin
antimicrob
belief
kinetics
jr
nutritional
swimm
1952
descent
charts
##cal
schol
athletes
cytotoxicity
insight
1955
##ancer
waste
continues
reliability
antico
##37
##mc
crisis
disappear
##ritic
##otr
promp
harm
cumulative
anomal
adapted
##56
niger
ordered
perception
glycos
sund
##ulus
politics
bcl
expand
format
birds
imper
protected
##leen
etiology
providers
escherichia
pra
malignancy
domin
musicians
retention
dispers
eigh
exists
##ariable
canal
platelets
mentioned
pituitary
overview
##osoc
walk
ocean
victoria
pretreatment
ward
automatic
nur
weap
600
hydroly
1947
##rick
cytoch
brid
##je
ions
yeast
##ifer
pent
##rof
hybridization
kap
session
echocardiography
phenyl
##graph
mixture
003
brothers
lady
dehydrogen
subcutaneous
movements
lacking
##aden
push
traffic
##iment
careg
simulation
##ensively
cdna
variance
rup
##win
##ulties
wars
cortis
teeth
falls
penetr
augment
sweden
feasibility
complicated
decreasing
listing
160
persist
curves
monitored
shaped
ontario
capture
contributes
##ryl
housing
advent
dp
##onald
mapping
inhibits
##ume
##cription
barriers
obstruction
##phrine
##eces
depends
blocked
antiv
satur
else
kit
alexander
##lastoma
serial
scul
stom
aort
details
##ima
focal
scat
##uten
racing
excluded
thoracic
driving
circuit
authority
##amental
indicators
attacks
quantif
copies
unusual
immunore
ubiqu
soccer
##una
appearances
agreed
compliance
1954
sessions
fibers
parameter
establishment
closure
##avir
insurance
lipids
##ceptions
publication
rf
ultrason
categor
##rics
obv
trying
recordings
subjected
##har
array
dedicated
##ila
phases
##inf
##elec
rational
marsh
syd
districts
##mo
cns
biopsies
steel
hsp
prospectively
transgenic
berlin
icu
formerly
pier
favorable
fd
##ries
glauc
dism
##alam
freedom
fluorescent
fractions
opin
ligands
110
substrates
1953
##unct
artificial
fibrillation
ko
studying
confer
exec
competed
ton
ft
rog
subtypes
##agg
lock
judge
rabbit
lens
outer
likelihood
leadership
1990s
##odialysis
exhibition
##ci
deter
deposition
mast
founder
detectable
1949
##ectic
anesthesia
nearby
##aver
##abeth
affairs
##flow
##lies
namely
vocal
weighted
##ropathy
crime
bibli
cool
practition
creation
tar
featuring
nico
distinc
supre
##65
##fil
##ois
##odil
correlate
e2
traits
##lastic
abc
undertaken
fundamental
nothing
soldiers
leak
grew
reaching
memorial
dihyd
mobility
registr
atm
clusters
##kins
premi
merg
##tructure
invers
depos
mexican
##enol
##eman
##erman
carrier
protocols
serves
sick
policies
dox
opera
modifications
##ospor
really
##34
premier
##rose
##sts
utilized
##ieving
carcinomas
obvious
queens
comes
republican
trees
univ
resting
##viral
immunohistochemistry
##orous
maintaining
salv
angiogenesis
##antry
##hyth
challenging
barb
crystall
contributing
ect
finals
##assium
##tives
macrophage
jur
killing
notably
putative
musc
universal
tasks
1951
jackson
mann
##ek
scene
interface
taiwan
conservation
##illus
rivers
glomerular
caspase
diges
pren
elimination
hispan
personality
inducing
cem
refrac
dipl
stimulus
epithelium
1970s
amplitude
attempted
##zz
potassium
zh
cow
solo
heterogeneous
iod
rarely
130
adaptive
window
cyclic
andrew
senate
##asting
czech
correction
relief
monocytes
arres
captured
bands
tlr
economy
fro
##tomy
eliz
cortisol
creat
regimens
##lia
##olec
##acet
crew
languages
reporter
jon
hors
guinea
atlan
arrhyth
cutaneous
opposite
usual
statin
##uits
seemed
independence
##theless
##ograft
combat
claims
nevertheless
shell
broadcast
ira
dt
adjusting
schedule
##queous
##asts
datas
reveals
citizens
nutri
pakistan
piano
substantially
examinations
sydney
difficulties
neutrophils
obst
synthase
scott
##dy
kl
bbc
comorbidities
drawn
jeff
contributions
140
reception
anthrop
scholars
nich
twin
bull
bath
embryonic
dehydrogenase
mood
precursor
##oresis
##p1
##rod
naval
households
alongside
##itter
shortly
spine
steady
mening
detecting
perh
retic
registry
microbi
hospitalized
rejection
programming
miles
epigene
##lers
testosterone
amplification
sector
paid
connection
microbial
splic
lieuten
ars
ign
##aceu
walls
photo
beam
heparin
biosyn
cartil
glutath
##rotic
affili
##35
tf
maria
terti
carbohyd
consistently
aqueous
principles
diffuse
##ographical
saying
cystic
tower
antis
##arged
feedback
peroxid
serb
##embr
headquar
stiff
earned
plane
sort
hell
tay
##mt
decomp
bern
gn
postp
antimicrobial
downstream
1936
couple
ago
perhaps
##oidal
gray
corticoster
arrang
aure
inhab
aml
brazilian
##oded
temperatures
leth
ips
evident
drain
proportional
chance
##alling
issued
##dehyde
apparently
##infl
entertainment
##cious
deterior
hay
talk
##oplasty
1918
##ster
perc
corporation
triple
emper
pyl
sad
analges
##erland
lactate
wit
##ulmonary
owners
##omycin
newspaper
invest
determinants
##ocortic
joe
chains
squadron
precise
metropol
stream
spleen
insertion
##aemic
##ysacchar
simply
premature
##rim
someone
fly
nap
nep
##room
arrived
otherwise
gram
##ylase
stret
##shire
adam
lies
dun
parties
tall
battal
object
troops
leuc
##licit
injured
preferred
sensor
##haus
mountains
##hyp
shop
loading
alf
gestation
##where
atyp
psa
sugar
##span
errors
rhythm
ls
turkey
##dep
bund
copy
medial
##dd
serot
vote
recruitment
epidemic
amin
umb
cytoplasmic
displac
eating
phosphatase
intelligence
##ellite
spectra
respondents
jazz
##eries
scales
jose
autophag
brom
esophageal
tropical
dn
discrimination
combinations
malignancies
##ighter
ff
doing
unrel
iq
ent
mucosa
##eland
confound
deform
glutathione
catalytic
leon
mini
protease
placement
##thetic
familial
##ranial
##tron
pathogen
##67
photos
##imb
populated
sensitiz
instruments
##ovascular
pigs
tin
##ilib
sulfate
##idin
lowering
##rial
pts
ri
occupational
minnes
##ymm
linkage
cytochrome
ances
windows
stimulating
wet
ali
absent
clo
tip
##uing
duke
preserved
escape
transportation
1938
oa
conflict
##eses
demograph
lumb
bos
refractory
diarr
##enin
declined
indones
##rison
##oint
engineer
lr
minnesota
feasible
sclerosis
##itors
novels
converted
##icking
dor
garden
adenosine
syndrom
controversial
urg
depletion
multivariable
cytometry
fruit
teacher
lieutenant
indications
narr
4th
immunohistochemical
##adiol
wisc
##tively
cavity
explan
heritage
consequently
##ilibrium
##fold
campus
pronounced
input
deficits
preventive
2d
##iplinary
##chester
tet
thing
##avel
gross
reperfusion
nmr
pert
##uff
consequence
##aking
sure
estimation
advis
baron
retained
##ucky
##adelph
tau
filtration
mycobacter
osteoporosis
ug
duc
predisp
##name
abb
besides
##rocyte
peritoneal
ling
facial
respective
##2a
dorsal
ku
mirnas
ester
rome
comparisons
gd
www
supreme
races
interm
##onate
critically
##ompl
herein
toronto
traumatic
p4
outpatient
cleavage
##ration
cultiv
opportunities
bach
duct
creating
##max
##otor
user
##onsin
ef
exon
##ipping
immunoglobulin
archae
neo
ocular
fighting
anch
faster
ejection
philadelph
subtype
reinfor
advance
##ria
s1
indig
cricket
liberal
aus
atlantic
shoulder
focusing
1937
##aki
normally
heard
settlement
##ogue
substances
anast
##bed
parental
##iding
##bt
lup
limiting
adipose
wisconsin
cars
ige
maturation
lewis
overweight
holding
comprom
uterine
pup
subgroups
price
consideration
config
inhibiting
lungs
diagnoses
courses
avenue
philadelphia
kappab
preparations
##phosph
##emble
mucosal
rice
yielded
intrinsic
horiz
cyc
incid
##aceae
norwe
eps
purposes
004
concert
##akh
rit
enzymatic
lag
recall
##book
margin
antiviral
unch
jim
papers
distinguished
filled
infiltr
kel
posts
improves
mike
imag
infantry
remodeling
harv
clon
addressed
kim
reductions
sah
sharp
differed
demographics
emphasis
combining
genotyp
1960s
fasc
myeloid
intraoperative
visible
infiltration
malays
invent
tap
estate
manual
bright
criminal
antagonists
argin
massive
hemodynamic
restored
driver
##ilton
cloth
cambridge
preterm
cook
##vin
##ен
##inflamm
responded
##inephrine
dissem
ai
strict
##tt
graduated
mitochondria
elizabeth
##99
##engths
reversed
capillary
sax
##ipt
epilepsy
acetate
fabric
tong
completion
horn
coup
fist
emperor
hematopoietic
sides
distant
provision
##uns
construct
raw
muslim
##iration
structured
pear
mrs
stronger
blocks
exer
cataly
cauc
nonin
holl
##usively
cartilage
##osome
lifetime
analytical
complexity
dimensions
##kh
contents
norwegian
contest
involve
exogenous
assumed
norway
geography
excessive
tn
dissection
800
liber
rabb
gb
accident
somatic
worth
landsc
##tivity
coupling
sixth
precip
interestingly
santa
seconds
scheme
glaucoma
inoc
attached
virtual
try
highlights
correlates
interact
grant
##opter
bmd
##aga
competitive
##ipar
pathophysiology
attitudes
wilson
cohorts
performances
immunological
##entricular
draft
##3a
zn
nev
incorporation
bronze
whit
sap
poin
1935
ideal
daw
leptin
zero
empir
hormones
neighborhood
says
enable
##zing
simulations
scheduled
publishing
mononuclear
documentary
fixation
salmon
locally
searched
kappa
timing
mitral
municipal
epigenetic
##9e9
e9e
e9e9e9
denti
##titial
1930
withdrawal
bap
sympathetic
lind
deputy
encephal
##idemia
dropped
comput
exception
bid
absorb
enriched
federation
neurot
deviation
##platin
activator
##estr
##onn
herself
pooled
voltage
##icks
vascul
supr
shut
##rene
beau
getting
join
mesenchymal
indicator
randomised
agricultural
strugg
quant
contamin
seeking
indeed
bottom
sales
##rt
pull
partly
orders
cant
##olid
hba1
blockade
intim
waters
##ilization
1919
endocrine
tolerated
opioid
idiopathic
##ulates
declared
qol
electrophoresis
tertiary
ends
sixty
cisplatin
##astatin
tach
views
chemistry
##town
sizes
collaboration
translocation
coagulation
guidance
##zh
##ional
grass
##neys
noc
restoration
##66
scans
falc
jump
##ault
territor
chromosomal
parasite
spons
##disc
mug
qt
1914
atypical
##jan
pah
asymm
select
##quin
ranked
##48
dissoci
neurode
##atidyl
rej
genetically
regulates
expert
giant
clones
mono
width
regarded
produces
proton
neurodegen
##bourne
comprised
equation
##ophilic
stomach
chromatin
embryos
receiver
cass
casc
raf
ile
subjective
##iae
pir
##idase
##grade
baby
layers
corne
phenotypic
stopped
pelvic
dosage
folk
innate
billion
permeability
alveolar
synerg
snow
shad
oak
tooth
figures
transcripts
recipient
naf
anything
gaba
eleven
diarrhea
##agement
unexp
antip
##osocial
gradually
snp
metropolitan
cha
activating
hi
decor
destroyed
pep
injections
dd
interference
staphyl
lor
aureus
prenatal
##fficiency
acceptable
univariate
ky
##ava
##amination
orientation
##efe
quantification
graf
funding
depressed
piece
fgf
170
toxin
a1
demonstrating
colour
southeast
eag
kb
1933
##kes
evoked
##atur
hemodialysis
edema
adding
hero
##fluores
rul
aneurysm
instruc
propag
inspired
suppressor
nuclei
fleet
lumbar
generalized
aband
##vs
pes
authorities
regulator
situations
renamed
epidermal
explo
glutamate
survived
##63
##iph
synaptic
severely
##iop
officially
##lings
rhin
dod
hl
##fall
compression
gaz
ferr
intracranial
rd
crash
##zyme
##oto
nurse
danish
helic
mine
flap
http
usage
##aska
##iasis
needle
1929
##hl
hispanic
##hips
automated
##ube
sons
rated
##43
hba1c
igm
promotes
##urer
styl
arom
destruction
lect
1928
vertical
##esus
##ami
##3k
relaxation
##owa
adolescent
para
l1
microarr
gil
##rox
##bec
frontal
crown
importantly
##met
incompl
1934
environments
tennis
kal
shoo
kinetic
##ern
db
precision
1917
##pes
unchanged
titles
abundant
overcome
##aham
##athyroid
##olk
assessments
objects
regeneration
##uity
##ameth
wond
ami
swiss
plasmid
##ouri
spectral
inactivation
resta
phone
strept
educated
peer
orchestra
grey
##apore
letters
bibliography
dream
turkish
##spring
##stone
faced
lean
disruption
pregnancies
subd
histone
electroc
item
stretch
versions
##ders
extreme
questionnaires
daniel
kur
tryp
sham
negl
unrelated
t2dm
replic
##hn
slowly
fic
deploy
##pi
begins
difficulty
transformed
blocking
1932
chloride
restaur
agonists
doll
hypoglyc
##edia
##openia
tension
pn
vehicles
##wick
##lox
##toral
legislative
integrity
taylor
homes
cabin
renew
informed
pylori
syndromes
concurrent
quantum
prescribed
defence
##lines
##ardia
titled
grafts
phylogenetic
ccr
##sin
cran
##agic
1900
resolved
exclusively
hypertrophy
accurately
pharmaceu
ces
##itr
singapore
songwr
##iet
##ously
owner
perfect
bin
offspring
rectal
sri
naz
elucidate
##ente
chel
##uctase
composer
c3
fuel
encoded
indiana
residence
hyperg
##inating
##95
vc
corner
##ares
advoc
##assay
tone
##chem
5th
excit
og
adver
surgeons
kansas
racial
##hypert
##adequ
cros
psychosocial
virul
ecg
arthur
oscill
evolutionary
auton
imperial
inadequ
##choline
vent
returning
reserv
everything
focuses
##edral
##azol
##iable
maps
meg
105
perioperative
poet
##otherap
proliferative
##uron
cot
guest
differentially
##des
##udi
flood
battalion
iga
naive
retire
francis
damaged
residue
1924
assign
vaginal
##lem
ide
palm
convention
puls
patch
##47
interstitial
aorta
corrected
epidemiology
chond
##pin
remember
metabolite
indigenous
##oustic
##ocon
responsive
##igen
rescue
ti
##68
tot
similarity
lists
steve
fant
##regon
charged
##fam
degeneration
antidep
##vasive
##chlor
##disciplinary
trou
drink
dal
goes
abundance
flying
symm
grav
##itting
employees
1931
preservation
subunits
##uding
##economic
theme
##ho
pathologic
biliary
anastom
phyt
roots
##igation
concep
1922
gf
sheep
serotonin
1927
expressions
##enna
directors
sky
losses
pancreas
remote
##otoxin
rio
inherited
buc
contraction
atmosph
##atible
hypot
ross
tat
potentials
phag
##uscular
dendritic
##asone
##bra
chim
##retro
manage
sequential
##aments
gs
brach
101
arginine
aware
antitum
immob
instability
hosted
signalling
##izumab
##asty
impacts
drivers
enhancing
slic
iraq
hosts
substitution
breathing
headquarters
lg
intens
religion
kiss
depic
holds
depr
##ionic
##etics
intes
oregon
tang
missouri
##etery
##hs
antiretro
calls
mhc
managers
briefly
##uge
##wich
ceremon
quantified
brad
critics
##plc
yr
raj
cemetery
surveys
##icard
anatomical
computational
resident
transduction
##45
colorado
##uate
hamilton
defeat
pictures
##while
moon
umbil
stratified
evid
mirna
rearr
##alk
attachment
antidepress
synchron
ye
pubmed
cattle
amel
doug
requirement
extensively
drums
carp
##opulmonary
1921
aspirin
mab
waiting
efficiently
hamp
d6
rend
stood
dic
##tles
##itig
threatening
vectors
churches
kd
secreted
##erate
andre
lamb
optic
seizures
hod
warm
modulate
anaesth
resemb
attending
rum
railroad
leukocyte
transfected
binds
brook
reality
losing
nephropathy
##antib
fame
vaccin
##hosph
armed
##affold
autologous
prophylaxis
drainage
18th
pressures
exped
cape
##ophen
angel
smoke
##ibration
cure
gw
taught
translated
1925
caucas
paired
aki
dy
learned
assistance
holy
lineage
uncom
reflected
##asi
gate
fef
recess
numer
##after
nominated
pci
staging
embedd
gad
foods
periodontal
autophagy
oph
bear
gem
employment
scaffold
bf
sid
gonad
purchased
sher
hier
vietnam
tand
stev
theater
trunc
camer
inges
##apol
switz
investigating
dyst
co2
yard
##aved
comprising
dens
chile
diminished
blast
1912
##ometer
locomo
osteo
unilateral
1926
buried
ventil
##allow
weather
##ocular
portr
ariz
##lie
designs
adapt
##rectomy
orthod
carbohydrate
accounted
quebec
wheel
nmol
portugues
androgen
glucocortic
conscious
radiological
temporary
##watch
opposed
literary
sacr
##39
brigade
dress
orb
##yster
encountered
pon
harmon
wear
switzerland
lupus
foss
considerably
ld
lad
comics
wolf
davis
##throm
##inflammatory
participating
teachers
votes
dich
##iday
northwest
rising
roc
##otides
insufficient
poetry
simon
rober
1923
greg
##alo
philippines
##umental
rabbits
##tism
esp
arrested
provinc
ranges
string
entirely
##mg
td
##osus
##ambig
excision
pharmacokinetic
ammon
modest
antiretroviral
atl
##44
hz
meant
labeling
histologic
stromal
nond
quantify
microscopic
representation
finn
opposition
biosynthesis
endometrial
officials
circumst
##bean
waves
dimer
##axel
defend
##osures
opinion
implants
##gers
soph
practitioners
tenness
##tral
inverse
hyperglyc
rush
bure
sculp
managing
dimethyl
dispar
orange
mosc
bird
concepts
unexpected
echo
algorithms
speaking
##osh
mile
puer
psori
stiffness
magic
abolished
##ectable
accounts
tended
cac
hepatocytes
estradiol
socioeconomic
inhal
##artum
pca
isot
##itants
intention
dol
corp
##arthritis
umbilical
cigarette
thal
##izz
vene
##oni
silent
scientists
fitness
##lc
flash
##eller
##iga
tennessee
##t1
routes
o2
complementary
placental
coaches
vesicles
sant
##iat
covering
teen
##ilst
eliminated
lobe
alliance
boat
bronchial
175
transporter
108
knockdown
sb
fungal
##eted
##hamm
meat
##gone
spher
reag
vulnerable
occupied
coff
arizona
modalities
##uretic
shir
indication
warf
##cla
palace
relatives
strand
apply
revascular
applying
advertis
simulated
perf
##ui
tank
##war
waist
paradig
##enta
faith
wel
covers
portuguese
ale
##esterone
neuros
pigment
ltd
maryland
dj
##cred
cyclo
hills
malform
philosophy
coeffic
bipolar
##amycin
bt
barr
infras
##sey
##but
coefficients
broken
achieving
triglycerides
suspic
activate
porc
shel
oncology
deficit
catch
##36
hydrophobic
powers
1910
progesterone
khan
eat
##ican
ging
nd
diets
fev
trach
insufficiency
anticancer
1916
interior
loaded
null
##ysaccharide
killer
postn
##inals
pock
ark
##agland
cation
##outs
yards
perfor
feeling
corneal
##g2
engaged
##omonas
statement
seats
renin
phosphatidyl
situated
spac
1915
passive
emergence
##imus
##roduce
inducible
cardiomyopathy
trains
wins
##ika
##oxygen
lod
##alb
whilst
themes
##opher
terminus
##bul
antihypert
minority
##atile
pref
viable
wish
##otal
evening
gay
effector
gib
universities
teleph
stained
reflex
continuing
principle
interrup
##ostatic
stephen
bah
##eria
selectively
dang
austria
hypers
##ower
##ococcal
##ubation
hart
synov
oxidase
readily
fn
ia
presidential
graduate
##75
queensland
adp
clarify
##acks
fluct
hans
heavily
harbor
superv
belonging
aspect
rotation
associate
abd
##aded
afford
##lv
cmv
terror
##asy
alkaline
sweet
thom
wrestling
communist
strip
frederic
equally
branches
establishing
chromosomes
evol
endothelium
cel
hat
guy
undergone
immunotherapy
alteration
##atosis
equilibrium
##98
visited
eric
reservoir
hes
provincial
kick
##henyl
centres
retriev
adsorption
prove
##lipidemia
moscow
##elic
alive
belg
##fc
fs
fefefe
##opsis
athletics
promise
examining
medline
##orbent
jane
croati
##fo
greece
mathematical
sg
##bin
intense
homologous
flux
cochrane
nag
##isph
probes
##kyo
gord
##utor
crypt
2022
coinc
cats
tick
antitumor
concord
oldest
legs
resol
gt
shear
regularly
apo
serop
trait
appoint
coated
##33
##elor
melbourne
nodules
rn
calculations
proc
##play
##tillery
intram
surgeon
clinics
ebv
##caa
postnatal
granted
anticip
pione
mps
##ов
diverg
doctors
accelerated
bulg
##arrh
reductase
kat
wo
cess
northeast
nos
thorough
blo
atpase
##points
formulation
israeli
sole
auditory
##f1
##iliary
##ophyl
homogene
debate
efflu
tric
reversible
manufacturing
##rex
empty
autoantib
##opl
aor
acoustic
differentiate
168
lesser
106
monthly
microc
##blastoma
##n1
responsiveness
##arcoma
##aran
104
##titled
galact
##atories
##athan
##iii
starring
denmark
elementary
licens
##pecific
##anz
cough
dock
jam
iowa
##osyl
journalist
fellows
disturbances
communications
##joy
dir
clock
ment
atrophy
mediate
pieces
hplc
amongst
gone
physiology
lm
flora
##avail
catech
poison
roof
##rical
1913
exhibits
invited
raise
preclinical
dysp
specialized
scholar
balloon
##agues
jews
rear
harry
sbp
blockers
appeal
tandem
nik
attor
preference
meal
intestine
mediators
agriculture
##lah
##ilation
ending
vast
##tims
visc
prostagland
modes
ventricle
thereafter
describing
##erge
anderson
referral
kitt
mining
##actin
rick
repeti
histopathological
apprec
stimulate
gol
distributions
fen
neonates
stores
derivative
registration
immunization
cocaine
gor
kings
tokyo
upregulated
hippocampus
institutional
##ipine
superoxide
engagement
victims
recognize
lethal
save
spok
colonel
wire
histology
##com
prescription
##lutin
solar
##vey
##plant
##roid
answ
witness
utilizing
erec
##izer
tendency
jak
suit
##uri
silic
##xual
##enh
thinking
##uncture
hippocampal
dosing
stored
miller
##ophila
osm
##42
geographic
##spec
enfor
contamination
##atibility
triggered
egypt
releasing
protest
qualified
passage
##rises
nash
matching
tcr
exposures
lands
surp
isoforms
athletic
immunofluores
fifteen
multim
##adian
meanwhile
##d6d6
mall
d6d6d6
soul
##rus
tony
##pson
solvent
colonial
antihypertensive
##omorph
neuropsych
transmitted
extend
carn
mail
##ommod
##cast
gym
loan
perceptions
battery
atherosclerotic
compartment
linking
##hal
##bir
systematically
##ecess
##mus
juven
vanc
plain
fv
triglyceride
perin
##ilized
jord
motif
102
bea
organism
mda
passing
##usal
albert
drag
##ensitivity
micr
##sky
pill
beng
##ailand
inadequate
tyr
saturation
seventh
gill
postmen
gramm
landscape
kentucky
accommod
##family
##bu
##imp
ambulatory
separately
##rie
surname
1911
mechanistic
learn
##aid
walter
crop
autosomal
christmas
##ranean
steam
naturally
1950s
sitting
jacob
headache
hif
multicenter
trace
103
synergistic
circular
hid
ethnicity
vertebr
boundary
thailand
ih
##ograms
strike
##eres
residential
##rovascular
fulf
fibrinogen
ready
caught
111
recre
alph
documents
##nut
##embrane
ecl
genetics
sag
turnover
serine
##olecular
hered
acs
initiative
embryo
alcoholic
singers
argentina
##botic
helpful
relaps
templ
##estab
##ochrom
##ladesh
retirement
studios
tubular
##ilic
bangladesh
nonp
##ст
##ilon
hang
tele
kinases
refused
##rov
tea
discusses
dramatically
mets
ideas
elicited
musician
optimized
pollution
mediter
##environ
investment
##antine
incomplete
wealth
inversely
hh
##alc
107
closer
rud
mist
infrared
1908
throw
adr
genera
roy
novo
guns
hearts
t3
horses
circumstances
##lycerol
vig
trem
##rad
knockout
profound
lute
smart
wine
audience
lyn
weapons
##vak
exclusion
##ding
recombination
uncommon
enables
glo
bs
wol
legend
noninvasive
pulled
rupture
colomb
brian
swimming
habitat
postoperatively
artillery
clamp
specimen
##anic
nu
urea
p2
##akers
pkc
gent
lasting
inactiv
a2
converting
##utable
custom
painter
scope
interp
##western
##ettes
##tanding
caregivers
eggs
planet
kam
##ampsia
banks
##opa
simpl
thousand
ratings
kidneys
optimization
fp
trp
infrastructure
postmenopausal
##actant
incubated
fing
##dam
##f2
radial
spacewatch
origins
rearrang
wk
instrumental
##32
##ido
##adj
pharmacokinetics
careful
broke
hed
envel
nafld
nfl
abstract
anatomy
006
##rag
##alin
developments
alp
collections
causal
dies
##ovic
progenitor
##ibilities
merch
hungarian
unst
concerned
wheat
mammals
##fish
radiographic
##keep
usefulness
ahead
##eled
##iture
fetus
vasodil
embedded
bowl
##elles
##uli
mons
trump
entrance
angina
passenger
ell
##chen
hierarch
##onian
##tia
sediment
dioc
alab
fate
succeeded
microenviron
settled
##ibular
cyp2
##omatous
sharing
mutagen
filter
organisation
tsh
delt
##titude
willing
remarkable
##zo
pth
1beta
##vant
approval
evolved
##ime
alber
contracep
factory
irre
aberrant
##ositol
##inder
hormonal
ophthal
operational
striking
microarray
playoff
coordination
homozygous
intermitt
submitted
surprising
counties
glands
erythrocyte
peters
thrombin
pale
belgium
penal
audio
monocyte
upstream
enabled
##orted
##irub
kaz
subsets
enjoy
expedition
negoti
retard
##icillin
yields
holly
##tified
refuge
inventory
southwest
##prise
empirical
das
replace
cher
eeg
manif
manus
cessation
dynasty
duod
##patients
selectivity
tells
spp
discl
##c1
rav
ine
pleural
hamm
coping
hemisph
riv
dermat
ford
6th
##ticular
hydrolysis
experts
septic
lyrics
##odium
supernat
##55
##bow
roads
##69
lemmon
##amethasone
007
telephone
##ante
arthrop
potency
accounting
ome
destin
neuropathy
##abad
prefect
conges
responsibility
trigger
##ecl
tracking
##uric
morphine
lank
refers
actresses
descriptive
##rupt
adrenergic
erythrocytes
manchester
lymphoid
revision
historian
##wart
mediterranean
commonwe
finland
##life
kev
topical
monol
disambig
##wing
rip
entity
unaff
seventy
bonds
frozen
wnt
##aug
bom
seek
##regation
atomic
answer
camera
wings
seeds
vacu
commonwealth
honours
erk
##bar
bench
asthmatic
iqr
abilities
##what
oklah
##itated
sirna
thromboemb
17th
beliefs
brow
rnas
eug
amaz
esophag
conformation
cyclin
puerto
##xin
nicotine
muscular
montre
fried
gst
mitig
piv
immunosuppressive
##anna
earliest
salivary
apoe
anten
##otoxicity
huge
circle
detach
sang
laboratories
hbs
routin
coastal
founding
##olone
elective
pharmaceutical
cloned
lane
##erce
tunnel
hunting
exploration
osteoarthritis
herb
modality
grades
##night
sunday
electrode
trich
bulk
missed
disambiguation
retrieved
somewhat
departments
oklahoma
ole
##abine
message
viscer
arena
##49
##vae
regulations
antonio
suspension
lincol
patri
bb
competitions
autonomic
##apor
her2
mdr
109
nps
chicken
hams
##omeric
##odynamics
um
herpes
oz
fan
beet
worksh
rcc
generating
hits
iu
##ras
palli
bush
7th
##ogeneic
golf
##engers
shield
inactive
revascularization
sequel
128
ankle
mcf
conjunction
indonesia
mississ
borough
duty
intellect
revised
mapk
laid
mammary
inhabitants
coher
satellite
##elli
commissioned
accessible
##edding
hyperplasia
##olization
responders
keratin
elong
enhances
owing
##aro
##iac
inpatient
oriented
cannab
##mill
programmes
ala
##anal
outstanding
neurodegenerative
recon
kon
##arct
attractive
ecological
alabama
motility
beauti
wed
streets
modulated
cysteine
carboxyl
competing
##ails
mans
processed
##oderm
enemy
deterioration
advice
##lyn
##irs
cyl
dense
austrian
##ugu
definitive
contacts
budget
platforms
veterans
highlighted
heads
fictional
persistence
portra
##thood
##olas
illustrated
##acryl
crossing
fdg
##ecs
controversy
gg
malaysia
familiar
leukocytes
keeping
##bing
fans
len
fibroblast
jordan
manuscrip
hereditary
##qol
occupation
##zer
##place
centuries
bureau
##ievement
df
##estim
truth
ncaa
static
##p3
##eleton
traj
proof
portugal
##ensor
charges
upregulation
howard
##r1
embase
radiograph
counseling
##requ
fertil
apical
genomes
somat
latent
electrocardi
ranking
perp
reconstruc
hazards
wake
aph
##aked
118
blues
surviving
achievement
unaffected
secretory
signature
##gest
spar
thi
mens
spiritual
summarize
pitts
margar
cycling
flank
everyone
##46
implanted
homolog
sale
partnership
spike
##eastern
marginal
harvard
hugh
princess
hawai
##77
fus
couples
nutrient
occasionally
volunt
##cement
jay
##oblast
bought
accid
amph
taxa
##ml
uncertainty
transit
cytoplasm
##ading
entitled
##rig
larvae
stones
fought
glioma
virulence
paintings
##asm
staphylococcus
influencing
cloud
exhaus
##pool
##hol
offices
profiling
microscop
##cing
clay
overse
steroids
##bach
008
ukrain
##electric
connectic
billboard
sell
1905
connecticut
mf
##artan
##urnal
##keting
pope
##omotor
##ulator
walker
platin
1909
capability
sput
headed
comic
1906
cave
euk
transp
translational
palliative
bart
##epatic
123
neoplasms
##atics
operate
cardiopulmonary
poorer
minimally
ukraine
dye
##oric
incons
consolid
cd34
remove
ubiquitin
700
append
allen
##ilis
##lam
##net
cru
happened
montreal
heterozygous
ambass
continuously
comfort
nhl
comorbidity
sie
houston
cock
dick
transmembrane
prone
haemat
dre
##hu
flexible
##itic
1907
phe
##01
offering
##ateur
elastic
##albumin
moderately
treas
extin
starts
dates
16th
aerobic
##kel
transfection
attorney
chip
plasmin
isolate
analogue
##onymous
hub
aired
dean
enrichment
attributable
##ulsion
ryan
fetuses
alan
patrick
##verty
agencies
metals
calling
endpoint
mtor
nitr
write
##ecep
eukary
##ippi
analyzing
neighbour
econom
stic
louisiana
subp
metres
gordon
femin
ultrasonography
##но
##esium
supposed
apolip
neoplastic
relating
oppon
wrong
ern
pfs
canon
divisions
equations
anthony
circumference
microt
sarcoma
ik
##jun
sds
diego
158
broadcasting
neurom
carefully
pancreatitis
abandoned
facing
existed
admissions
vp
##esophageal
orally
##asic
physics
redox
poverty
amplified
nigeria
functionally
ptsd
microvascular
##amma
finnish
dust
##atine
10th
immunofluorescence
bachelor
inver
##anner
ruled
sox
attacked
##idium
115
directions
lux
anomalies
arrival
dexamethasone
##ghan
thousands
apolipoprotein
edited
##cholesterol
mscs
##factor
demands
vertebral
gather
##onectin
##cn
pneumoniae
zo
##formin
ae
confed
breeding
judg
##abolic
##ectom
bif
varies
shooting
##mouth
thrombocyt
aur
configuration
catenin
##osyst
brca
htt
##immun
realized
spermat
##amer
anticoagul
outd
##drug
clark
##tium
##orub
amend
ses
explos
biofil
phosphorylated
soy
##bell
essentially
##apers
bases
##illi
##roit
fulfill
douglas
islamic
animated
indoor
consent
##omous
announc
wearing
seizure
iop
##ocin
buffer
instance
ie
adduc
screw
##rolif
trus
transforming
##oplasmic
senator
corticosteroids
harris
glas
selen
reflecting
cooperation
updated
retinopathy
interpreted
perturb
imped
notic
interested
superficial
cysts
platinum
argued
crowd
fertility
##ulose
spaces
##chemical
##elson
##orro
tris
expend
##heim
##41
vom
nord
contral
throughput
explanation
satisfactory
chr
alanine
experimentally
##tist
shan
inhaled
##lot
neurologic
recons
d1
nerves
displacement
##light
pi3k
##ylate
fighter
foster
laur
allogeneic
emotion
##mias
connections
disestab
modif
##31
veins
pw
prix
joining
traditionally
seasonal
##gow
##nand
diamond
intermittent
cement
1904
mycobacterium
mississippi
nob
edin
glycemic
conce
eh
sut
arranged
aspiration
haplotype
metformin
reflects
##urgical
##78
happy
interests
sulph
##keys
hole
##oen
cyan
postpartum
dak
papill
hungary
##62
p38
till
lamin
##acle
economics
##ugin
ille
gsh
priest
annivers
hodg
emigr
acceptance
ral
catechol
franch
defective
silencing
cdc
beautiful
pleas
cathedral
##oblastic
ethical
drawing
caf
sized
drew
caval
porcine
clone
overs
detroit
archive
ferment
chose
##regular
mk
##opus
wu
chloro
histamine
geometry
myth
marie
topics
venez
positivity
sanc
tongue
perinatal
##imetry
coffee
deleg
##iser
unstable
jesus
acidic
clinicopath
ded
transc
soundtr
ich
producers
treaty
##enes
##xa
polyc
parks
g1
observe
##cp
visceral
peaks
mask
microenvironment
notch
dcs
irregular
##ogle
kaplan
##m1
ukrainian
senti
desire
juvenile
##olate
##odal
finds
philip
patent
cascade
tig
aviation
atom
eighty
specialist
normalized
mixing
##oprot
juan
homology
##alamus
fingers
slope
135
adiponectin
operator
paradigm
ou
trimester
turning
follicular
contrary
magnesium
reward
pine
##fraction
##tees
pages
wait
agar
municipalities
##acion
dall
prolifer
##eva
committed
t4
##osarcoma
scenes
catar
ask
dros
##amo
##loxacin
flowers
bruce
arteri
1901
electoral
ionic
intellectual
categorized
anniversary
mercury
##tar
wels
cerebrovascular
marketing
sensing
vl
aspart
abeta
validate
masses
latency
supplemented
dissociation
pge
suffer
##64
lanc
funds
gyn
##ello
reign
innovative
challenged
parasites
##apt
caud
constitute
warri
colitis
##ogenicity
nanos
##irubin
##ompass
##ffe
##keletal
filling
##asp
legislation
topic
proceed
amelior
##ometh
gv
entering
1903
##istol
mutated
pales
falling
jess
amateur
h1
selling
urgent
anyone
thirteen
edinburgh
tow
stratification
hurr
retail
chapel
friendly
##borne
strongest
courts
proteinuria
disappeared
abscess
helping
encompass
prompt
dysplasia
accordingly
##vastatin
crude
##yph
##encephal
conformational
buck
##uma
ay
integral
profit
##leton
regulators
##ih
##ivation
proportions
axial
dominated
##eston
grounds
applicable
numerical
verified
allergy
##agh
tl
##oslav
gtp
explicit
sounds
pocket
weakness
##uccess
intraper
omega
cited
##kshire
faces
contralateral
examines
thyro
##tiles
myeloma
symph
ja
introduce
1902
lakes
rg
bw
##usp
als
immunosorbent
probable
##iencies
termed
tack
##tidine
warranted
##ceeding
tachyc
abl
fluctu
unsuccess
arising
matthe
dave
annually
chec
defensive
rival
collectively
##eutics
ridge
cosm
1a
dublin
roch
salmonella
bod
sic
rooms
brady
neuron
fh
155
compete
##bon
compatible
medieval
strategic
beta1
honour
shah
hsv
psoriasis
abortion
##okines
carib
trunk
alleged
##fri
handling
knight
131
bun
##ser
handed
##b2
span
##iami
##agu
butter
##zy
frederick
129
cabinet
transplanted
circadian
request
pec
verbal
unn
legacy
resusc
lowered
mcd
walked
microp
finance
welsh
predictions
mik
journey
phill
viewed
phant
proinflammatory
fourteen
ventral
##recip
hydroc
##ophilia
##t3
plaques
aller
bridges
samuel
parliamentary
pittsburgh
mw
shed
ingr
belgian
prostaglandin
quantity
roberts
regime
pink
merged
restrictions
arrangement
450
socorro
actively
anna
##iva
arise
bones
prophylactic
survive
finishing
p450
landing
tons
lawyer
scd
colonies
consumed
multidisciplinary
accompany
defining
complaints
weights
substituted
gian
##osan
##idity
ry
12th
##ortical
kan
##nals
additive
expon
coat
grafting
wider
correctly
carcinogenesis
c1
rely
##agnetic
sixteen
##inces
##graphy
horizontal
elucidated
disturbance
##asal
##burn
flows
##oro
miami
metro
provider
moore
helps
ccl
c2
afghan
buddh
interpret
similarities
##transm
shifts
turns
acuity
herm
interacting
epitopes
##esize
splicing
lawr
amn
dvd
csa
tech
conduction
##iner
scattering
##pur
commercially
harves
penins
hyster
nationwide
##know
d2
passes
##eptides
latest
file
appropri
calculate
##omerase
neuropath
##sex
cricketers
jaw
##rospinal
##din
monotherapy
##oides
##ofib
conversely
sword
##aminergic
overt
##actor
matt
blotting
lockdown
productions
##names
geographical
anaer
ibd
accumulated
cart
rings
inaug
alexand
obstetric
##arine
engines
##ontrol
verm
wick
mrnas
hunter
tamil
overlap
bioavail
sporadic
##61
purification
8th
discharged
meier
membership
integrin
##stem
shifted
pcos
##ourse
ottom
abnormality
##omial
chemicals
averaged
lb
theories
gait
kle
routinely
twins
##arean
appearing
immunop
##aux
##fast
saudi
cinema
qualifying
refr
addressing
##iffer
erg
##linear
engineers
cognition
hypercholesterol
calm
cerebrospinal
parathyroid
joints
astron
territories
##graduate
undet
2a
criterion
iranian
r2
journals
##iparum
gau
pav
print
hud
kinds
colspan
lawrence
organis
perspectives
aldosterone
gets
falciparum
##arium
##73
mong
##oreg
curative
##box
subcl
##ullary
##bro
fsh
##veland
perox
curric
##aud
raising
aneurysms
expensive
obtaining
vamp
##entan
aromatic
##incorpor
google
subsid
midfield
bmp
cutoff
drosophila
entre
mediating
transv
##azines
stig
codes
habits
fungi
##oxygenase
natri
##k2
reticulum
conqu
##omod
lincoln
constituency
##anian
arkansas
kos
propensity
tie
deprivation
##entin
microtub
sputum
acknow
##roliferative
roughly
wavel
autoantibodies
notice
##orubicin
dent
remix
installed
modulating
laugh
sacrific
modify
##p2
fluids
spontaneously
wy
stands
determinant
##athered
nig
scal
priority
##iab
alignment
polypeptide
allevi
fos
##iov
breaking
adulthood
prohib
dangerous
coordin
##aa
kevin
##otherapeutic
nonlinear
fistula
venezuel
ceremony
johann
exert
##olia
skull
demol
supers
utah
##iy
truncated
temp
cef
swelling
suspended
##inase
analogues
misc
centered
peaked
ministers
##athers
alternate
electrom
lingu
certific
mack
145
c57
singing
brush
##hel
##mcs
decay
##ayers
eradic
beds
furn
stake
adhd
##arios
##umar
##claim
nb
##ethylene
egyp
calculation
##atation
atlanta
gulf
micron
colleges
microorgan
##lementing
guar
symbol
##thor
seb
toll
bringing
compilation
##using
send
employing
trab
exclusive
138
1898
##adren
##onium
##enny
##alis
cleveland
##97
subpop
demonstration
##yers
coa
alfred
precursors
behavioural
morbid
spite
credit
embolism
illustrate
##issance
readm
codon
##ostatin
ovary
migraine
glasgow
mism
romania
112
titers
##lements
trap
purchase
##incorporated
painters
engineered
taste
endovascular
minimize
pseudo
plasticity
songwriter
##credited
##arial
incorporating
ninete
wm
##uber
##orf
blocker
reven
cadher
neurotransm
hidden
cea
noct
dair
nano
electroly
anatomic
rever
creative
unlik
interviewed
##anium
##edical
equipped
devi
myocardium
nose
aerugin
mathematics
admiral
metalloprotein
aeros
##dale
seeing
attenuation
consumer
islam
##del
##hex
dataset
##ieties
117
mosqu
norep
##ched
clustering
allo
serge
discrep
deposits
##iton
nause
148
##irable
deline
crosso
unless
lid
encodes
lucifer
##amph
morgan
replacing
hypoxic
conditioning
photography
manipulation
airways
surrounded
connectivity
##x1
aeruginosa
ingestion
videos
retina
gingival
unlikely
##entric
disad
tachycardia
cash
1930s
safely
irresp
mars
prisoners
brick
electrophys
norepinephrine
inserted
1899
ligament
normot
extending
academ
distr
##parts
ureter
choose
lan
epitope
wan
009
allograft
runner
maybe
deox
jimm
occasions
secure
macro
rbc
atoms
disadvant
dere
goods
##ayan
conjugated
cerebellar
##amines
spots
##ieves
conceptual
##yroidism
##rete
bold
##hammad
acyl
165
##orecep
hodgkin
unincorporated
##elia
fi
testicular
fitted
lipopol
psychiat
helix
##aming
tries
immunoreactivity
ppm
##inform
##ogenes
tendon
escap
maur
moths
participant
##ensitive
monte
outl
serological
coex
quadr
cows
powder
periodonti
saliva
pierre
prevents
colonic
industries
recessive
septal
touchdown
##timore
##opyr
judges
hundreds
roger
plates
trophy
limitation
placenta
guideline
confron
thro
leban
enroll
gag
stabilization
islet
considerations
consul
peroxidase
shadow
icd
##iazep
prefecture
preecl
manifestation
##eto
##ussion
genotyping
epsilon
##ichi
##itate
##ahl
muscul
til
encaps
##emen
15th
interactive
soundtrack
cous
##omatic
taxon
sided
presum
seattle
inapp
yan
attitude
monkeys
periodic
zones
##ocep
evaluations
myself
uss
irradiated
phenomena
##urers
##inery
weigh
##acycl
reflux
thresholds
paraly
mond
barc
christi
paediatric
##ophils
##afted
wounds
binary
adoption
reasonable
allocated
orbit
vomiting
unfortun
##alamic
digestion
antigenic
rejected
hyperglycemia
basin
underground
gynec
pointed
pole
mounted
voluntary
beij
lis
gfr
neutralizing
patrol
gamb
aux
##du
hypotension
##tz
mitch
116
ghana
sult
apple
##ionine
1alpha
nausea
spi
restore
discrete
criticism
mimic
baltimore
oocytes
##otte
##acs
evans
magazines
switching
contaminated
restaurant
markets
sisters
psychology
quiet
##ocons
welf
infarct
mend
nucleic
dot
hollywood
reproduction
defunct
jn
##ager
##idad
ix
anchor
fantasy
mold
1896
##fficiently
dragon
prednis
arach
casual
coating
desired
trafficking
bernard
preceding
microbiota
env
hired
dad
1890
histologically
yug
remarkably
##wall
##ahepatic
##apine
artif
lav
yor
boundaries
canine
rho
scin
triang
discontinued
currents
returns
trypt
1895
socialist
rrna
##rogate
oligonucle
serbian
resigned
supportive
bub
##iters
guards
##aware
spreading
virtually
siblings
cadherin
ultimate
grace
##ynaptic
margaret
juris
##aturated
9th
worst
borne
127
vik
##terase
13th
diaph
##low
fid
imposs
backing
collective
berg
cotton
sz
lose
##apolis
labelled
poems
gov
vt
shoot
clients
stating
adenovirus
libraries
immature
##itance
adams
extremity
##leting
begun
sao
disl
feelings
efflux
envelope
russell
agree
romanian
romantic
augmented
olfactory
distinctive
shunt
##inge
119
kitch
suddenly
14th
cytosolic
conditioned
##ografts
dating
350
##irc
5p
experiencing
acetylcholine
##olo
##oler
capsule
##trin
illum
tourism
##ressing
senes
splen
beijing
newborns
liga
cip
aj
##dic
asper
folate
breaks
datasets
doubles
mitogen
inqu
victim
revol
passengers
##esian
ecosyst
attain
provinces
##uda
concentrated
crossover
jet
eighth
rcts
proposal
lysine
ninety
chf
137
nal
stayed
##icul
indians
##alent
vibr
##iced
1897
echocardiographic
chemokine
##asome
mosquito
inequ
consistency
sarah
dairy
ligation
dissolved
##mes
alumin
stranded
welfare
diocese
facilitated
voted
##tib
presumably
##zation
aspartate
126
m1
euro
orbital
oxygenation
sexually
cbs
ski
genital
mec
colonization
##ods
ownership
kelly
visiting
synovial
murr
acth
##oxif
rebu
formulations
forests
prescrib
inapprop
deplet
partition
vienna
##atonin
##borough
plasminogen
funded
attracted
icc
##aund
##igenesis
fecal
morris
114
newspapers
leu
volley
##endocrine
assembled
covari
exactly
pseudomonas
enabling
##anny
expanding
insects
scav
estimating
hurric
daughters
arrhythmias
incision
##aca
reass
bour
lumen
##x2
uro
rounds
inhalation
240
whites
##bot
avoidance
natriuretic
##bone
anion
singh
##cers
hygi
executed
##othy
medias
##oconstric
excluding
distor
bears
arn
afterwards
papillary
bilirubin
gangl
concrete
offensive
downtown
##asa
constitutional
##arians
powered
ischaemic
fisher
bax
##virus
gle
therapeutics
mismatch
##zi
irrespective
causative
buffalo
shore
lud
cyclospor
coalition
##uro
allied
##osexual
winds
seropos
statins
desert
##eri
accordance
167
crossed
tort
conducting
##000
plasmodium
##odic
orthodox
slower
sof
##hard
thrombocytopenia
script
##gel
caribbean
assum
moll
sial
theor
individually
displays
xyl
photon
biggest
##antin
unre
##rogens
narrative
dioxide
diver
##puts
caucasian
sequenced
menstr
autopsy
periodontitis
cards
farmers
calcification
##titis
scand
composers
argentine
ectopic
longest
firing
painted
fired
##oga
##rontal
doxorubicin
regurg
methodological
tied
imbal
##quine
lncr
dismiss
marks
##opress
excitation
designer
revival
hut
##acon
dish
##marks
descending
counterparts
prad
##oblasts
saturday
wildlife
##ashi
lasted
d3
ottoman
bent
##iden
evidenced
##aj
atopic
predicts
barn
typh
hemorrhagic
##88
eros
##atinib
shares
c57bl
popularity
expiratory
##itabine
##ogy
##ista
##uki
pag
afl
limbs
##aco
physiologic
##enteric
promoters
consultation
tk
sampled
encouraged
responding
meetings
intraocular
honorary
moti
constructs
billy
##iber
optimize
egyptian
##plastic
soldier
lips
universe
goth
##vac
##uman
horror
surprisingly
antidepressant
discography
hypothalamic
ceph
monaster
##uxim
files
mesh
##litaxel
##enburg
jason
dallas
cxcr
crt
allerg
jimmy
sustainable
antif
##obi
ian
biomedical
saints
cutting
acted
##ensitiz
nitro
differs
elabor
https
##ан
113
melatonin
ea
124
##ysts
caffe
judic
emt
chin
##don
chemo
##iders
consp
rolling
##erving
##nik
abr
esrd
aggregate
xi
##raft
chand
##iri
downregulation
organiz
##ais
th1
##yrin
paclitaxel
glucocorticoid
122
gaps
baker
ron
donald
meters
bak
ethics
bog
hct
bioavailability
grab
sheet
artistic
thanks
ferritin
divor
ureth
museums
##uy
homogeneous
governments
1893
collaborative
anticoagulation
peninsula
##oplastic
overlapping
violin
visualization
ic50
reproducibility
cabg
##hem
scc
##titution
suggestive
yl
businesses
mds
operates
lgbt
burst
diagnose
confined
##romycin
marshall
articular
##oprop
1892
assass
##enses
bolus
uncover
hyal
macular
affiliated
kenned
##umps
impression
nih
stain
altitude
optimum
scenarios
dg
arthroplasty
venues
hav
1889
yang
lamp
cranial
totally
##arn
warfarin
11th
ambient
3p
confounding
locality
ceo
##ifier
erythemat
historically
wooden
commissioner
nelson
epic
wonder
pathophysiological
modifying
collect
christopher
cruz
##cap
masters
worker
chanc
orle
##teenth
tumorigenesis
##ck
absorbed
rationale
preferences
candida
##omed
unres
##list
cues
exploring
alkyl
assayed
##rian
##bish
prepare
ethiop
##gas
##ocysteine
journalists
immunosuppression
autonomous
##uximab
affective
##inous
lipopolysaccharide
prolactin
##rell
noble
lengths
stool
##atherine
##oyl
endpoints
##utely
expectations
kras
moral
lithium
asd
campbell
guan
g2
originated
permit
exit
engage
quantitatively
tear
multiplex
investigators
attendance
revolutionary
1894
substitute
wounded
analyse
forg
nlr
specified
thompson
rus
eliminate
th2
oxidized
mdd
pivotal
yout
gardens
cec
##mate
##icardial
159
reorgan
cpg
##ocyan
repeats
resuscitation
noradren
hend
penetration
instruction
ghost
subur
premiered
remainder
##edo
threatened
yugoslav
calibration
##inergic
##mania
hampshire
glial
orn
austin
accused
tier
##erald
peru
##aza
leakage
appointment
clot
##tica
identifies
maine
mig
##ingly
timely
warning
##olarization
messenger
photographs
formally
monarch
plateau
nl
169
sevente
mixtures
kennedy
vaccinated
neutrop
gathered
fishing
coaching
viii
sigma
deletions
##thrombin
##rated
##phy
posit
##erent
tibial
abo
globally
bnp
chemot
forum
impossible
joy
capabilities
motifs
kw
##oka
mediator
constants
nepal
aminotransferase
lectin
##itating
orleans
##arus
quart
anaerobic
influential
c4
##eties
irrevers
condens
microl
fev1
##nant
entities
volunteer
noticed
##yard
##ulsive
vw
encycl
##oreal
##idi
luciferase
stewart
##ostomy
##oba
revealing
johnny
modelling
publicly
##2o
micromol
##emed
nitrate
1885
2000s
societies
motivation
##boards
neuroendocrine
iodine
immunob
clonal
vii
##ovo
helper
##vation
lf
angioplasty
collapse
##angel
wright
persisted
malt
unfav
praised
yes
runners
license
orch
##oly
hrqol
escal
ulcers
solely
ride
battles
1891
p1
commune
characterised
preserve
spoke
glen
nes
glucagon
proto
##ostics
grain
tol
isa
sucrose
talking
beauty
dying
resected
##fen
##icted
milan
norman
disaster
belonged
robin
sensitization
##ithelial
eighteen
catalyzed
assault
pore
moth
glycogen
licensed
karl
lon
pond
##ei
compositions
dsm
t2d
physically
printed
emissions
lanka
discontinuation
##urus
thrombus
##vef
apparatus
outbreaks
confirmation
##otropin
annot
percenti
mirror
##mingham
precipitation
immunocomp
##infected
package
##nutrition
##ilia
generations
summarizes
hrs
##rett
distances
kids
closing
apc
notion
aggregates
##rolimus
##toire
birmingham
nucleotides
##ogl
architectural
comprises
##acious
endocard
mud
didn
fk
hob
claud
kary
##father
chess
torn
##oda
silica
##nan
pacing
mumol
curriculum
ambassador
worsening
ultra
descend
volleyball
##ropo
##ocompatibility
phosphorus
monument
embolization
releg
kitchen
rico
##d1
##59
outdoor
surfactant
intubation
colombia
mcl
liverpool
##gy
cargo
157
##urt
blacks
lights
endoscopy
molar
historians
belt
dopaminergic
mcp
wells
##auter
vulnerability
scenario
argue
dq
##ellum
peroxidation
finite
constraints
literacy
activates
cataract
allergen
osa
incumb
rm
jar
franchise
preeclampsia
balanced
##azone
duties
##rons
##transplant
duch
rim
malformations
##itinib
##epl
styles
marath
lymphatic
aeti
##odem
beck
##acil
epidemiologic
tribe
madrid
pai
autism
glomerul
epiderm
dyslipidemia
reun
carlos
seal
microorganisms
carter
##ronectin
tbi
corporate
##lock
unfortunately
adventure
ophthalm
polymorphic
incidents
nova
##arter
virolog
mariti
##rik
cholec
crystals
radicals
lub
kenya
elite
normotensive
pmol
jama
uric
##antic
##sea
surgically
1888
innovation
thai
strep
loud
shaw
endometri
stern
pestic
##quis
smile
anis
franklin
lipoproteins
analgesia
react
resil
μg
apnea
lion
releases
enanti
elsewhere
serbia
editions
kun
bail
advanc
insect
pars
portland
bcr
accomplished
disab
##ceeds
speaker
elast
##ahyd
hypotheses
pari
pdgf
geometric
murray
progressively
microscope
##uin
spik
##ер
prototype
transverse
struck
gnrh
biomass
picked
ports
cra
fernand
ruth
pater
properly
##ystic
rash
uncontrol
##tes
##opp
turner
recognised
anastomosis
switched
shin
immigrants
buy
supplies
##istar
immunoprecip
graham
angiogenic
phr
renov
##omyces
hypoglycemia
postm
overload
update
glio
listen
##ativity
salvage
adenoma
covariates
ionization
cooperative
nazi
throat
instant
robinson
hn
broadway
##hosphate
##health
reversal
compact
gains
pulp
starred
fractional
dpp
sj
kor
exacerbation
dakota
hepg2
pathologies
##empl
poets
encourage
ist
glu
oblig
watched
spending
##etta
gary
hcg
biologic
rifle
enrollment
carries
dealing
avoided
relate
springs
blinded
stat3
##cale
moi
mandatory
##ports
rays
cable
mediates
brooklyn
f1
transcriptase
compensation
neuroprot
stanley
visitors
121
proximity
meaningful
astrocytes
truck
frames
##lass
approached
heme
poem
distinction
looks
borders
gyr
inch
##eno
disney
##isch
alaska
pcs
archbish
ivan
133
jobs
plex
##die
whis
##bles
lambda
##cope
hunt
phon
139
##tise
hbsag
ensemble
##enson
carot
##emor
sloven
guarant
lil
violent
polymers
glycol
dece
coordinated
p21
kv
##tha
fifa
asa
asperg
oblast
wang
dbp
crf
vasopress
basement
acknowled
technological
knowing
##acic
##odon
influx
develops
1880
disulf
haemorrh
initiating
definitions
columns
##mv
generic
ud
##agre
radiol
heterozyg
resign
readers
watching
##uly
assumption
breed
##version
210
termination
harbour
##enda
weapon
##ogs
##inescence
definite
##acterial
congestive
gauge
imprison
grouped
advers
sufficiently
subclinical
pian
##eda
phospholipid
preferentially
meets
delhi
positron
armen
suspicion
##ifug
frail
beneath
machinery
polarization
spoken
##eton
##urable
rowspan
fragmentation
##iki
yam
dyspnea
##andial
pyram
matthew
legion
##onduc
1887
corpus
nude
ganglion
streptococcus
inappropriate
hydrochlor
credited
unw
honors
nba
doubt
wes
flexibility
earthqu
mutual
alberta
phantom
sensors
heating
anaesthesia
mason
deng
##pro
charlie
fb
##opy
paf
gymnas
troph
youtube
##emes
##ationally
avoiding
##edema
carto
repetitive
##cd
ks
newer
1865
ott
nmda
##encia
reproducible
##enberg
##ampton
transporters
##efa
restr
crack
rect
hatch
##oea
immunomod
dispersion
unsuccessful
149
##affin
900
filmography
explains
yorkshire
##flur
##ophore
h3
chit
ninth
osteoc
biologically
manh
azerb
template
##roll
##ugh
discip
completing
##etamine
microv
azerbai
##rogenic
collecting
hygiene
surveyed
##ray
homocysteine
ics
organisations
##ouver
##tinib
##istrib
tears
##anus
credits
bishops
humoral
ced
tourist
benj
rag
implementing
endoplasmic
costa
angles
addiction
spind
transferase
carlo
##ighters
resin
evac
schw
##ropor
folding
volc
##ол
##lobulin
asymmetric
1886
interquar
thoughts
src
telec
flower
whatever
##eleration
1h
consuming
erythropo
electrodes
adrenocep
##criptions
belongs
aq
dilution
eds
doors
prp
module
##oker
frog
burns
searching
220
dynam
interquartile
mechanics
##role
depleted
##imetric
amendment
retain
regurgitation
##ados
slovak
acup
odd
observer
##illing
##avi
##kee
toy
initiate
bacillus
programmed
lying
##icans
##lington
antipsych
downregulated
medicines
shall
quantities
disparities
##ornas
wer
merit
inherent
alleg
##ardo
grave
diffraction
missions
cfu
##urin
commitment
protecting
interfac
##auss
honey
kilomet
intent
evil
##onyl
methanol
pbs
broader
weekend
presentations
inactivated
unex
ais
tamp
gfp
burning
continental
mosa
mitotic
eleg
bonding
forear
##bank
##olol
energ
splenic
gabri
b1
differing
balb
glac
commerce
cytology
antarc
portrait
margins
eukaryotic
tram
spell
xx
##acles
arabic
charter
##ucl
##tructural
##olipid
scinti
sexes
painful
earn
##atorial
fda
##estone
diagnostics
confirming
##ldl
movies
micror
selectin
connecting
uefa
breakdown
pollut
##aba
cavalry
fluctuations
multil
ards
morocc
accidents
##ulas
cloning
prosec
hil
##ographically
dissemination
##organic
merchant
sphing
intoler
glycine
retr
thund
diagnosing
##kar
illegal
vip
hemisphere
ease
cxcl
cler
spear
##holders
overexpressed
##58
communes
ted
connective
lvef
hawaii
testis
interfering
gdm
sponsored
effusion
147
paradox
132
##core
##berry
##word
guitarist
ahr
##ulators
epinephrine
peop
##ophan
josh
exceeded
mapped
archives
font
delays
sultan
inconsistent
parietal
unlab
legislature
##coming
fruct
debuted
mandibular
oncogenic
tens
##c2
prostatic
##friend
transitions
permitted
contractile
qp
##static
loyal
corticosteroid
warren
##owed
##abd
##umn
##unctiv
andy
illnesses
interacts
ineff
biofilm
lineages
lymphomas
criticized
##xr
1b
knights
bdnf
hug
messages
incremental
##ishment
necessarily
publisher
workshop
filip
nodal
audi
wants
troponin
trin
pals
reciproc
intron
matric
##549
leish
execution
360
mcg
tubes
##ascar
##elect
enhancer
##haw
monkey
saving
trabec
cole
matters
dysregulation
disseminated
reflection
adequately
##hed
##rowth
cone
successive
1884
μm
haplotypes
nacl
ipsilateral
radiographs
incontin
mtdna
##eve
wistar
certified
consciousness
swallow
cll
archaeological
discussions
percentages
diction
2b
##opharyngeal
coherence
metaph
danger
1864
peroxide
globe
clan
##ivity
##chi
ecm
##tina
duodenal
repeatedly
##feld
gur
nearest
##licate
enlarg
puber
aar
electrochemical
##plat
medals
interfere
brun
client
stents
deployed
##attan
semin
pradesh
exhibiting
portrayed
1870
nonspecific
##afen
activist
ctl
youngest
worm
lessons
##afil
granules
xanth
atmosphere
genotyped
##iod
harmful
forth
1861
intravenously
raman
amen
immunoreactive
consumers
advertising
conductance
disabilities
##nx
adenomas
commemor
eosinophils
allocation
gps
radius
pearson
##anolol
compartments
ppar
progressed
stimulates
##esters
##itely
##fly
##acht
pushed
luis
mobilization
##inance
alice
erythematosus
calend
##ophosphamide
originating
lati
##etti
nanot
encyclop
ethn
peoples
##io2
transpar
micrornas
facilitates
ordinary
##tification
emotions
suicidal
frances
businessman
##tl
p3
arsenic
vte
stepwise
##ouses
griff
1881
##bound
analgesic
dated
unin
handle
##opathies
manufacturers
ups
scre
cephal
hmg
editing
##rp
##vo
ssc
tolerability
##body
##agglutin
##oking
victorian
daytime
gear
##pered
tent
pharmacy
##enne
devast
recommendation
designing
expenditure
##iesis
##iley
vancouver
jung
obsc
hyperp
##aminase
epidural
ein
146
campaigns
warner
impairments
bup
##anim
texts
natal
##do
liposomes
##opr
hull
parac
arbit
thrill
allelic
hindu
transgen
benjamin
machines
graded
rigid
nutrients
removing
144
jejun
manga
martial
diabetics
hela
psycho
possibilities
##ennial
haemoglobin
prefrontal
wayne
##sen
defeating
documentation
interventional
antibacterial
failing
summit
behaviours
propagation
medicare
fused
##opia
wc
moments
charity
paralymp
aes
afghanistan
productivity
##5a
gbm
inability
##eon
multidrug
densities
##ии
retardation
sociodem
genre
##oneph
richmond
##mium
ganglia
sak
##mont
export
neoplasia
##iler
sacchar
telem
symphony
tigers
##olym
thrombotic
mills
poisoning
deemed
brains
manuscript
beating
grid
1863
cannabis
mesenteric
prosthesis
wrist
jin
indirectly
anthropometric
##ushing
boss
voting
verify
fruits
intraperitoneal
##etized
revenue
##ranolol
analogs
indicative
##venous
surrogate
wean
hypo
1882
fis
portions
percussion
##galy
converg
paral
aborig
microd
crimes
respiration
bengal
emphasize
dried
fibronectin
dilatation
cyclophosphamide
barbara
sentence
checkpoint
tribut
##backs
beats
cholinergic
dermatitis
thalass
##ulu
glycerol
myosin
gastrop
clinician
semif
easier
nocturnal
oxal
hospitalizations
##uters
ascites
reaches
yu
##yon
lawyers
hypersensitivity
##owski
##gie
trading
burs
foci
encl
##jab
##lif
assignment
##esp
condom
punch
summarized
tpa
guil
beth
sight
unexpl
hydrocarb
gust
mines
bav
##orship
h2o2
nationally
arachid
gover
download
##thus
intersection
vasoconstric
trna
##vd
underestim
cet
lavage
rhod
tailored
bread
##enyl
denied
este
blank
latino
mitchell
cardinal
encouraging
##oul
##isely
structurally
1862
compromised
meningitis
automatically
enlarged
biod
apartment
##timal
decide
clothing
14c
smad
##zes
barcel
inheritance
kay
hydroxyl
dilated
##auterine
##child
riding
commentary
propranolol
segmental
struggle
enforcement
jonathan
##adjuvant
penalty
accompanying
procedural
inorganic
soils
##utase
##rows
##iel
##h1
scientist
supplied
caffeine
confounders
##kov
nomination
##rexate
craw
##icep
acquire
##right
##pm
carr
hepatocyte
neighboring
scor
exploratory
conditional
pmn
ldh
##dles
##iates
strange
##uvate
a549
donation
##51
unm
lymphocytic
ost
##asters
crohn
disk
augmentation
urolog
phi
pulsed
ascending
##entic
farms
immunoassay
differently
menstrual
cholangi
boats
undergraduate
##ching
##entary
caution
irreversible
shopping
nebr
cousin
attributes
exacerbations
grading
anticoagulant
rsv
wedding
##ignific
caes
nevada
typing
dollars
##omere
125i
##igenic
vegetables
##usalem
orph
woods
pollen
chen
##oman
moves
surr
##acyl
instances
hypother
extends
##otent
chase
##2b
pam
maritime
advisory
dihydrox
##epsin
mant
counting
pbmc
##ortal
##epithelial
vlad
##otrophic
toxicities
pour
electricity
plur
preoperatively
tir
lun
disrupted
sporting
spider
forearm
endors
##tip
reader
bioinform
gentle
opens
##ifferenti
hurricane
postpr
##odia
filmed
bioactive
shortening
immunoblot
medicinal
##uclear
1920s
iceland
saturated
##amen
sug
anger
##encer
mci
mtx
choices
luther
##inster
mca
spond
##oradi
rocks
initiatives
##pc
playoffs
##ghai
phoen
borderline
jerusalem
bris
abbey
ranch
##otroph
cytogenetic
wavelength
computerized
placing
projection
nn
fitting
detachment
successor
trouble
airlines
interch
arabia
incomp
degenerative
babies
rebell
civilian
steep
overd
##mund
manufacturer
neoadjuvant
filed
16s
microsat
transported
vr
bristol
primers
infertility
beer
organizational
1878
residing
digit
##yday
chat
##esc
incontinence
##otrexate
highlighting
neuropsychological
malnutrition
stabilized
requested
liz
talent
cooling
loads
1883
uncontrolled
olive
hypercholesterolemia
hierarchical
hyperm
anime
introducing
##master
giants
kol
##omyc
##holm
##ulture
barry
catheterization
encounter
##ignificant
##jar
##apes
##bes
vinyl
archbishop
choline
moist
##castle
ors
exons
lions
concordance
unnecess
robotic
amniotic
##arboxyl
circulatory
reportedly
##idazole
##ieu
##osidase
##oria
railways
lex
bible
llo
##ivia
reconstructed
phoenix
##4a
ethylene
fitz
telling
piper
##ск
navigation
phage
deeper
tribes
##osacchar
arb
charlotte
nct
msc
trypsin
hematological
nbc
flexion
intoxic
nebraska
pretty
festivals
methotrexate
arrhythmia
vo2
abroad
stack
microrna
smear
luminal
##xia
##stand
dissolution
incumbent
bn
##flurane
methionine
bats
senescence
atlas
##ethylation
worship
voiv
hein
##kan
##ygd
nadph
tryptophan
fairly
axons
colleagues
atmospheric
hydroxylase
dib
granulocyte
entrep
##etine
##bred
guer
burg
repress
flavon
barcelona
icam
deoxy
philippine
##ondition
clinicopathological
##ococci
lymphaden
zebr
chromatographic
nephrectomy
##esi
##utors
##adh
derive
glioblastoma
patency
seventeen
constitutive
pere
##ulla
bim
ing
diarrh
croatian
confirms
rangers
nickel
shanghai
kre
homa
encephalopathy
robot
taxonomy
kath
ribosomal
neutropenia
nicholas
1876
collins
buch
heb
slices
trio
##isin
oliver
voy
diaphrag
##gry
eagle
saved
prl
##sch
solitary
##his
brachial
inoculation
inten
##n2
##eca
nid
panic
supplements
κb
inoculated
jenn
##otopic
aaa
adolescence
mate
leucine
dengue
immunost
parker
competitors
sung
signatures
subspec
##oprotective
##avian
forens
amygd
treg
repression
##alg
##ны
hamb
outpatients
treati
##away
glucuron
deleter
cuba
standings
dermal
likewise
##usted
selenium
##ication
chlam
##oxicity
##cinn
pose
##ycle
moiety
uganda
lever
dismutase
abdomen
prompted
##state
##ungal
facilitating
islets
vand
mutagenesis
##idopsis
sedation
deleterious
bare
rodent
sas
alkal
1500
bras
mosaic
persian
imposed
reputation
kerat
eph
immunized
chimeric
chemotherapeutic
diag
erup
intrauterine
afp
glp
obviously
makers
sulfur
explaining
addresses
confocal
chemokines
manhattan
##cha
democrats
##fan
##azep
overseas
##boy
athlete
percentile
##arynx
ruling
amster
knees
##ru
zur
##azy
constituents
134
cbf
ancestry
##ophyll
scholarship
laryngeal
ductal
livers
resorption
cream
whereby
posted
##ographer
cerevis
mrsa
immobilized
231
lysosomal
##feeding
retrograde
1860
governing
##umatic
motors
##si
lak
bcg
segmentation
##abe
chee
##arf
icp
bacterium
postprandial
ultrav
xenograft
efficacious
animation
ranks
specialists
detector
donated
ineffective
stu
##oxetine
memories
##alf
##cm
##brain
arabidopsis
1879
hv
functionality
altering
democracy
digestive
fibres
tightly
outflow
ascorb
marry
colors
cerevisiae
conflicting
necessity
gvhd
spend
epo
preceded
graves
ammonia
aberrations
curc
argument
calendar
incorporate
dow
tunis
spo
grandfather
implies
compromise
ascertain
cyclase
##agger
cholest
contractions
disin
gradual
quartile
##wig
amsterdam
confusion
##istani
##urgery
activists
beside
chlamyd
hms
anticipated
autumn
##ocent
deaf
tof
136
##rep
##omavirus
polys
excited
stepped
igfbp
locomotives
bug
paw
##agers
pulses
exercises
pioneer
germline
presumed
pharmacologic
norf
cage
edwards
##orum
##vular
declar
blow
##ims
imbalance
intrap
rach
satisfied
cadmium
associates
##noon
thirds
##ivan
1875
proteolytic
sociodemographic
##var
tape
warrant
caries
protr
##achi
##kr
endothelin
immigration
##lishments
geriatric
statue
maced
judged
hematologic
##iko
hdac
##kd
trinity
contex
##idic
crest
coil
aesth
##iors
chambers
endurance
conflicts
##100
fled
dum
wise
sha
nif
##kt
speakers
jerry
muhammad
jury
endotoxin
subtle
bever
phd
##tify
dict
reed
mystery
referring
detrim
combine
ultraviol
afternoon
cellulose
##iya
##aced
##ht
##grav
##igg
mpa
helical
sculpture
suture
statements
##benz
competence
infused
angiographic
##orable
##afish
retrieval
1877
timber
devoted
wastewater
1871
fibre
adela
##nity
anglic
##ju
##overs
hypothalamus
arrangements
harrison
##diagn
radios
##oskeletal
##inus
mtt
vincent
##ship
failures
##ellation
##orporeal
venue
143
friday
qualification
cochle
birthday
witch
ultraviolet
seriously
montana
cesarean
junctions
consor
quit
intravascular
##rates
peroxis
demolished
aryl
htlv
creatine
1867
wool
aerosol
triggers
##nar
computing
detrimental
##etrical
burned
hide
semic
thymus
suv
zebrafish
evolving
##bus
monastery
cw
munich
wis
bundle
departure
differentiating
asking
formations
croatia
##employ
nice
printing
rheumatic
bam
tx
lysis
b2
serie
qpcr
histories
##kir
aquatic
##orh
tomato
##stan
##ophosphate
predisposition
shirt
phospholipase
nights
##itarian
siege
fmri
recycl
pace
wb
primer
realistic
loved
rhinitis
impacted
##oning
kirk
##iah
botan
##ofol
1868
roster
attempting
anaemia
avian
##ecan
##essed
guardian
batch
congo
vasculature
yale
##umber
##force
cincinn
voivodes
##aching
overlo
chancell
##eus
cml
graduating
ej
pell
arrays
conjugate
neoplasm
fluoride
deceased
aster
punjab
sequelae
1874
##aman
precisely
cancelled
docking
##udge
##opathology
chan
##ulous
nicotin
##aul
duo
1872
broadly
electrophysiological
vf
##istribution
signing
##ogether
duplex
##inis
theod
##oprost
hym
cuff
depar
brack
e1
citizen
141
premiere
deuts
##insulin
eld
##ikh
cyp3a
##ommun
prescribing
porph
compiled
##aser
madison
normalization
##ersion
canton
##idone
everyday
tracheal
sq
##lyl
##l1
rah
vwf
gri
##pd
prey
transplants
kab
unnecessary
##whel
sparing
voiced
cigarettes
pretreated
vestib
reacted
##ия
cincinnati
##aks
excav
advocate
bk
##eb
brca1
unemploy
hoc
nominations
025
thromboembolism
##72
alternatives
slc
internationally
##yline
acl
sedentary
##elt
canonical
architects
traveled
comments
##79
##oi
expertise
altogether
overwhel
malay
aside
##flav
cholecyst
celebrated
newcastle
##acycline
convert
payment
1800
homogen
repertoire
pix
wik
paulo
##inae
stanford
##vere
submarine
maxillary
nanom
sto
swing
customers
pruss
collaps
photosyn
##enos
pten
marty
##pping
marvel
750
##itre
musculoskeletal
choir
striatum
##ophone
lloyd
gaining
hemodynamics
viscosity
rodents
##unted
holiday
selecting
essay
explores
1873
##okes
graphene
patron
venezuela
bend
adc
voivodeship
contexts
silk
ageing
schist
##iry
labels
##omnia
fertilization
rodrig
oncogene
conversation
discriminate
disappearance
scarce
voices
elicit
resolve
##ishing
lich
settlements
expectancy
heaven
##enzyme
ecc
acceleration
symmetry
glycosylation
isotope
liberation
mete
stenting
##onephritis
##uspid
craig
propofol
favourable
follicles
sier
operators
institutes
aboriginal
hsa
##asth
pom
##aters
153
prices
elongation
##echanical
manufactured
bulgaria
impedance
spherical
cic
##lon
boul
palsy
applicability
shortened
jnk
positioning
ee
housed
##aho
##car
indexes
filament
armenian
exceeding
##inton
##d2
142
##ahn
1940s
snake
##oxifen
possession
##ochemically
neuromuscular
hardware
catalyst
tables
titer
inspec
connect
boxing
polymerization
##uran
henri
citations
stresses
##amel
##keeper
##tices
garc
herbert
##itamin
npc
instructions
##ibrill
fallen
artifacts
forensic
dha
##nie
##erated
##nett
##imir
anesthetic
valves
oss
glutamine
enorm
antiplat
1866
rearrangement
##tide
delivering
unr
reliably
adelaide
##igo
purple
enlargement
convenient
ال
spindle
perfused
chronically
stap
ubiquit
outline
companion
gaze
alien
esophagus
dancing
proceedings
012
modeled
##eing
cationic
noneth
##uana
adhesive
##ectomized
cerebellum
scattered
execu
catalase
chrys
scrip
015
trif
tips
follicle
nonetheless
unfold
##endo
##uka
keyboards
##lich
hernia
bra
fuc
supporters
collateral
luke
strictly
##brand
assuming
steatosis
ceased
braf
workplace
corrup
hudson
disulfide
citrate
sees
heights
constitutes
inositol
thymidine
pries
subcellular
sleeping
adsorb
manifested
##hill
ammonium
sickle
fum
##emaker
km2
silicon
##ра
exerts
##case
hollow
resilience
terry
tablets
iliac
occasional
audit
##eliac
interplay
##anne
putting
stigma
convicted
gif
mating
simplified
aggression
##auer
protests
hrv
immunoprecipitation
##acrylamide
fee
##aceous
dus
priming
##fib
##atr
territorial
tender
centrifug
enterprise
breastfeeding
passion
nest
proteasome
acidosis
hir
##umptions
relies
integrating
sati
slave
darkness
##through
achievements
pakistani
appra
grip
tibet
emphasized
axonal
s100
parenchym
ottawa
gates
crosses
fut
lok
blog
amphib
crops
cytome
##rogr
desirable
dictionary
##soft
hood
organised
starch
fibrous
bulgarian
circuits
tenth
keith
##oxins
butler
creates
uncomp
dab
aβ
dash
penn
shep
##aches
neil
viewers
screenwr
##eville
ws
tran
gyrus
##r2
nail
##illo
##iotherapy
logic
vib
stationary
nested
jail
happen
iter
eradication
gelatin
protects
hook
uncredited
calor
neuroblastoma
possessed
jen
spectroscopic
larry
##isal
gallbl
warriors
nv
substitutions
adopt
extinc
makeup
navig
northwestern
advancing
##van
##rost
apob
sprague
scaffolds
polycl
ica
remind
gren
possesses
syrian
kas
##ocene
##imaging
##utt
##bane
clothes
herald
prosthetic
personalized
assets
hurt
rhiz
vasopressin
villa
energies
fermentation
biv
cleft
ibn
noradrenaline
radioimmun
pax
threats
##ront
exerted
motorcy
permits
byz
hamster
sarcoid
splice
utilize
bobby
##ocaine
dorm
sket
1869
chemically
hypothyroidism
ballet
ecology
huv
stemi
disestablished
stir
solubility
phospho
##omide
##flex
transcribed
suppressing
forec
manor
modules
inputs
haart
transfusions
inspiration
##antes
ecu
apt
myster
ua
##ozo
##axia
##optera
cytomegal
transferrin
##non
deficiencies
antisense
weakly
commons
dysph
resort
pools
innings
brass
cricketer
eosinophil
intramuscular
biotin
superc
esters
deer
sensitized
##erian
##osperm
##aris
southeastern
spiral
chop
##uckland
remembered
##oco
##orbol
nhs
nab
flour
cirrhotic
dap
antiplatelet
camps
uterus
##omyel
ace2
intakes
230
phospholipids
bbb
wats
auckland
schemes
intracere
whitney
##izable
gated
##otyping
staged
152
antidepressants
metalloproteinase
encyclopedia
modulates
tidal
##atization
fossil
upgrad
tiger
councill
extracorporeal
trypan
readmission
farming
infiltrating
sask
golgi
missense
lipase
##ocrit
catherine
##agia
acupuncture
proteases
immunocyt
helen
##ersonal
hsct
sacred
##osum
withd
harold
dreams
##enders
bacteri
elevations
unfavorable
arterio
discrimin
spark
psychosis
tanz
steven
liberty
##keleton
herbal
touring
diarrhoea
withdrew
ears
##etary
albicans
tiny
intercellular
distinguishing
sentenced
wore
puf
beta2
parenteral
pge2
##gic
##inement
insomnia
bars
##87
behalf
nir
ritual
leagues
##edicine
##afenib
preserving
##olith
amazon
cleared
guild
rams
editorial
p16
gallbladder
vasculitis
savings
copyr
##avan
denver
##opril
muslims
emphys
##ecyl
silence
ties
brands
320
apost
answered
simplex
moz
peric
hebrew
pem
microsatellite
plurip
semen
eq
matrices
authentic
guilty
considers
flaps
integrate
sean
cytomegalovirus
alert
diesel
pma
depicted
calf
pound
curv
jug
segregation
thigh
##umi
polyclonal
##atology
azerbaijan
miner
leo
mainstream
##math
iris
##yman
succin
hips
hond
fronti
##ropy
lactic
##odend
assumptions
athens
inos
discom
reserves
enjoyed
hamburg
hack
##itives
##ро
##station
volatile
m3
spa
seropositive
##stad
barrel
vermont
##enzo
##iments
merely
dilation
attained
plc
resten
favorite
thiol
##atil
filming
##icidal
juice
1850
acr
surprise
certainly
indonesian
earthquake
rol
spray
baronet
fellowship
##ipr
deployment
cdk
facebook
norfolk
morphologic
crus
##cein
recurring
multin
microw
grows
progenitors
rey
gonz
regards
maintains
##tier
rena
plasmids
baptist
sudan
cultivation
bosnia
specialty
parenchyma
eagles
garr
stimulatory
##gate
solve
##uzumab
derby
accessory
throne
claiming
##uta
epileptic
guang
bisphosph
macrom
paraffin
assume
asser
bv
##atectomy
titanium
tales
tale
gan
##inks
ek
fourier
curcumin
femur
turb
reagents
temporarily
spanning
predecess
supplementary
##iper
rearrangements
vim
administer
##ogon
sheath
stick
catheters
mainland
tribute
allies
elbow
peng
##issa
searches
probnp
fluoro
scintigraphy
pbmcs
##acetic
deck
syria
unprec
deeply
relapsed
plots
##ifies
##1b
1859
##anga
lactam
##elective
anglo
shallow
bayesian
imply
conjunctiv
ensuring
##mel
antioxidants
buddhist
gradients
##transl
rigorous
unpreced
154
##uto
dfs
ferry
vampire
nemat
toxins
kenn
ish
antifungal
bald
##asted
##itine
punk
electrolyte
##ал
consortium
vil
faecal
lacked
nigerian
interim
##oretic
swine
evangel
##ositis
garcia
anova
metrics
bari
##iao
kc
siv
tracer
strokes
##ectory
defenders
vm
vow
##xious
millions
wbc
worn
colonoscopy
jefferson
tablet
##opid
infusions
restaurants
pursue
##most
suited
riders
##udine
##alanine
loos
clinton
ware
infrequ
recurrences
unprecedented
mesoth
vegas
alarm
discord
eddie
pyruvate
ew
elig
2010s
bsa
microglia
156
unlabelled
css
##aughter
leukemic
tamoxifen
##thouse
incor
radioactive
rescued
polyn
vegetation
supervision
##ensory
maneu
publishers
homozyg
truly
naph
##ectories
##olum
rituximab
##onv
blu
##trial
withdrawn
kt
##giate
coagul
crani
telomere
hoped
porous
##izers
intermediates
trajectories
varic
1848
endocarditis
deposited
imt
delaware
##identi
narc
##anni
landmark
uve
adaptations
##mith
##esting
subpopulations
yielding
kcal
clif
lebanon
aiming
opponents
reserved
##wal
projections
voters
stroma
tlr4
##52
dennis
bevac
ultrastructural
eventual
013
diameters
##amol
rally
polyethylene
histopathology
##arsh
strengths
sebas
bj
tenure
abu
polyps
##opause
gift
stol
##emporal
##tituted
immunologic
pedro
utr
interchange
ether
##atar
interrupted
persu
torp
##iated
contested
antenatal
cd14
moh
##olateral
alternatively
defending
bevacizumab
jag
holland
permission
colored
packed
recalled
raz
affair
##ouracil
gastroenter
cryp
proteomic
intrahepatic
varieties
deleted
##tie
redes
##asha
thickening
##ivalent
wards
ralph
excitatory
##ski
gravity
coordinate
##olph
qualify
sensation
watson
determines
contraceptive
snap
myelin
carved
void
peers
tours
##tran
employee
1857
maz
rogers
paternal
concerts
hypertrophic
microgram
perforation
sierra
cyclosporine
transcriptome
##ulins
##can
shapes
amputation
constantly
##claimed
loose
roos
venom
twe
##forms
##eni
debt
discomfort
microtubule
vena
perry
##lp
vd
arbitr
suppressive
caregiver
diary
petersburg
meter
fauna
##kal
endometriosis
scaling
nasopharyngeal
raises
hog
isab
mead
eis
##inesterase
febrile
##ogrel
##amil
##ophysical
massac
##a2
susan
senators
flies
aftermath
##imide
unified
contrain
fastest
ulcerative
amygdala
##infection
mabs
##astric
pter
##orr
traditions
contraindic
##hydr
fighters
hydrophilic
advancement
freest
och
dawley
subfamily
overnight
primitive
planar
excellence
gels
intrad
mhz
breakthrough
hydroxyp
##iscal
stuart
subop
parap
brisbane
##fol
##ills
meteor
problematic
mutational
continuity
carriage
shun
##aea
##assy
##omorphic
014
011
##qi
##rooms
##acia
intolerance
awa
##iji
carbox
benzod
edges
ethiopia
epstein
trajectory
supine
chaper
triggering
encode
microsoft
ramp
aided
ges
neuroprotective
harvested
pde
sull
##respons
##inositol
denat
dialogue
secured
emigrants
conductor
unanim
brings
##nings
mediastinal
comprise
landed
##isson
wilhel
erected
skeleton
disposition
academics
amd
galax
corners
berkel
vestibular
eligibility
particulate
stall
oxyt
cd44
accessed
latv
terminals
dinner
combines
christians
tanks
016
psychotic
##obac
semantic
##liga
postulated
soap
jacques
bout
habitats
##bron
hib
panels
loops
cpr
projected
opinions
151
jere
restenosis
observers
airborne
##olds
rocky
gig
closest
cun
##85
manuel
somatostatin
##eit
accumulate
nem
##chol
lign
erk1
leeds
infancy
lift
cope
bry
preparing
stead
adjunct
cd45
ecuador
berkeley
diplomatic
governance
##iagn
vitre
##phone
palestin
nee
disturbed
ambig
keto
calcit
##inally
rebellion
mace
belarus
arachidonic
depot
undetectable
##fire
occip
cd11
##eterm
chester
f2
gond
desm
florence
ampk
bonus
urugu
verb
swan
eur
editors
pollutants
corresponds
thio
montg
extrav
incorrect
commanded
fails
sarcoidosis
dependency
synaps
decomposition
heroes
neuroimaging
gosp
##noid
inaugural
sheets
tread
playwr
reactivation
##onuclease
constituencies
seq
todd
bee
gilbert
cylind
divergence
clopid
serotype
axillary
shoulders
polyacrylamide
##pyr
graz
cd40
extinction
cm2
newton
refugees
adipocytes
##oal
fathers
vicinity
##diction
phagocytosis
anglican
##arbonate
##days
1858
vesicle
didnt
freshwater
potato
270
nineteen
1c
asks
drove
parasitic
papillomavirus
radar
meals
nsa
adventures
##pert
clopidogrel
##oxidase
ernest
caring
filmm
renaissance
sans
enormous
subdiv
##odegrad
pearl
locked
##develop
harvey
regenerative
appropriately
erythropoie
enthus
venture
pha
angels
abstin
duck
designation
guests
##unity
aggrav
##ando
suppresses
positioned
brainstem
aluminum
##ozoa
alters
keral
accessibility
facts
nak
chore
michel
dwelling
velocities
ard
sectors
fructose
exponential
swimmers
##ijuana
3a
camb
rocket
graphic
bru
doubled
beads
trache
exhibitions
wille
nomine
##oglycan
northeastern
individualized
##imeter
##econd
congression
pdt
cartoon
murphy
rfl
friendship
fungus
ibs
forwards
euth
practitioner
arf
knife
portray
exclude
penicillin
tors
naked
chiral
cytoskeleton
warsaw
##erie
conception
ink
immunogenicity
representations
dispens
memoir
attractions
germans
e3
auxiliary
edu
##otia
generates
recognizing
ladies
mam
eta
##elo
ric
crush
018
postin
sprint
grammar
patches
##usa
knows
##took
metallic
dlb
drives
conjugates
metac
justin
neat
msm
degraded
vacuum
disabled
##ovan
electronics
paint
hemolytic
agglutin
occult
heterologous
chord
extremities
##enem
sts
infin
##fulness
viewing
pursuit
worry
glycoproteins
thrombolysis
nodule
ji
##ittal
##zymes
thre
writes
multifactor
cpb
osteosarcoma
gum
hk
adiposity
sentinel
##frequ
surgeries
##mad
##coplas
sphere
multid
##anges
episcop
histopathologic
saccharomyces
##yler
nanoparticle
280
allergens
percept
realize
cytosol
homeless
diaz
dystrophy
beetles
marathon
leukaemia
##omyelitis
ischaemia
atrium
chancellor
cured
sophistic
laz
benzodiazep
drummer
bou
lacks
lymphoblastic
##g1
stressed
accommodate
judgment
underlie
rook
hale
##yel
contributor
crystalline
1854
a3
synthes
rw
suboptimal
cobal
detective
immunostaining
cava
slav
hysterectomy
##licity
irrigation
aetiology
shakes
elli
concentrate
spirom
biot
relay
murdered
receives
##roke
computers
abbre
batter
##o1
sma
lov
kerala
judicial
emerge
##tons
##dish
opponent
174
tetrahyd
christianity
congressional
##oreceptor
prevail
godd
sara
salts
freezing
gemc
pilots
calves
stuff
amid
heterod
##osamine
raymond
dawn
##enoic
uninfected
funeral
albeit
bms
asymmetry
thread
trick
arriving
keratinocytes
oocyte
aav
extraord
##onine
writings
ya
relocated
breakfast
adherent
reagent
##growth
polycystic
017
commented
copyright
indometh
arnold
capill
encephalitis
flanking
gonadotropin
neovascular
cleaved
commod
abbrevi
##h2
doesn
missile
##tir
fabricated
butyl
##iosis
capita
erbb
##zhou
choosing
gothic
inversion
kash
ppv
##arrhyth
arteriovenous
inspection
rendered
corrid
assists
rebuilt
dichlor
educators
torpedo
##frequency
decorated
duplication
posth
vertebrate
monster
niv
confused
##arach
autonomy
nets
##avery
stressors
##itters
damp
##ded
trapped
solving
##ahan
barely
##hav
lifes
flowering
dispropor
indomethacin
##osides
##ucks
farmer
##acaine
n2
answers
listening
##elong
electrophoretic
##tail
nucleoside
##irm
illustrates
transfers
gods
whenever
consolidation
negligible
militi
parking
hypothesize
transloc
cck
cavern
tournaments
##litazone
constituted
chitosan
lei
hgf
concurrently
010
##iabetic
timp
aligned
dihydro
gemcitabine
deviations
##fu
keys
incon
##aban
overexpressing
##urst
monolayer
poul
synthet
romance
##acies
1855
oval
##worm
##ige
whee
hematoma
hydrochloride
##idol
traded
##uez
neighbourhood
osmotic
constric
##71
conferred
veterinary
##hasic
snail
installation
dispute
aerial
##xy
granule
fog
arist
adrenoceptor
leonard
reich
vad
##osi
##itid
kazakh
hepatectomy
subspecies
##relin
260
emphysema
ppi
ngf
vancomycin
##omatosis
##eptidase
weaker
devil
prostatectomy
##ophilus
enem
copolym
counterp
propri
argues
##imab
energe
##urine
naming
mao
cardinals
declaration
deformation
epa
lattice
reoper
planes
abrog
larval
invari
alge
shifting
frustr
superfamily
ihc
filters
##uated
hyperlipidemia
##oproliferative
vap
marital
fibril
hyperactivity
oligonucleotide
deals
adds
threw
presidents
intrath
rubber
leis
hpa
##urc
amine
commenced
recreational
debr
##otics
muller
kate
quadrup
enters
julian
corresponded
republicans
menopausal
telomerase
schm
unev
mumb
lec
vietnames
##ucker
discipline
vietnamese
jurisdiction
transgene
compensatory
boost
robo
oscar
cylinder
gamm
napole
corruption
autobi
cag
beetle
descriptions
investigates
##ounted
danny
tomb
##amino
blade
bromide
dame
intran
recreation
displaying
##ipe
lifted
increment
drinks
radioactivity
suite
##yll
traveling
clustered
statistic
somers
axon
menopause
smallest
presby
subsidiary
apex
tacrolimus
ane
##wi
asb
##albuminuria
tommy
grove
vapor
mek
emg
approximate
##calc
wellington
merger
banned
quasi
microsomes
discipl
rapamycin
flew
microsph
##uliar
homosexual
vor
aspergillus
sergeant
##osoma
##zeg
conferences
021
##mates
southwestern
orthop
nrf2
equity
armour
veteran
##omery
h2o
##ич
pyrid
kits
enos
brew
##aws
##cience
thromboembolic
disb
stockholm
##functional
##arius
neutralization
informal
##atra
propos
alpine
retinoic
sandwich
th17
hypothermia
##ubes
disproportion
inexp
flights
geomet
##wald
sovere
gathering
electrostatic
una
sovereign
##oca
prothrombin
##restrial
livest
##aha
earning
parv
freely
##ел
oscillations
unity
gregory
gabriel
##glycerol
##ubs
peculiar
terminated
##oxane
suburb
twenti
dismissed
bloom
cd25
moss
1856
bore
##uine
phorbol
constituent
confederate
rage
counsel
foxp3
friedrich
dihydroxy
tunn
autoimmunity
displaced
##aukee
leop
koh
fles
stopping
extinct
##iotics
chickens
santi
##luc
succession
##illes
glucocorticoids
tracing
defer
quarters
ore
banking
aspar
filipino
maize
pride
heading
##ylon
governors
boards
##arp
quench
palp
##uh
venice
stein
gout
##omethyl
ecmo
sheriff
reciprocal
indo
businesspeople
suz
heath
genesis
dix
constitutively
laure
##amins
##ет
##uchi
1852
wallace
rhode
deformity
##ulae
205
sorting
swift
questioned
francois
drafted
dominance
immortal
##x10
unexpectedly
pka
##hew
marx
cxcr4
cens
cuts
mip
inpatients
dbs
maca
supervised
warfare
cooking
##enhagen
yours
##ortem
##tings
hyperther
harb
slip
ivf
opportunistic
catalog
##arta
liu
##otom
unions
##obacteria
renewal
annex
enamel
ghrelin
journalism
cleaning
##agar
shipping
renewed
erosion
treaties
bpd
helicobacter
radiofrequency
eleph
stakes
t1d
frailty
holes
kaw
intensities
lucas
confess
montgomery
opposing
sending
suspicious
1β
mang
cryop
resumed
radiolab
haven
orf
ecosystem
##ensen
##ocycl
fg
backed
filaments
marin
slice
plexus
settlers
appeti
coin
##acher
##nip
##istence
##ych
parenchymal
cott
accelerate
hughes
preferential
advised
##omegaly
informative
##kers
mats
subtr
pupils
drinkers
##entry
sheff
interpersonal
phillips
##jug
computation
##nary
cyp2c
gsk
##atheter
appe
harvest
##89
##zin
##con
spermatozoa
cgmp
globulin
tocop
burk
encounters
resultant
293
monday
cardiomyocytes
kidn
adducts
rotavirus
granular
##tured
competent
##thy
epi
doctr
westm
beef
zimb
choc
##incter
inspector
##este
polyphen
##ат
portable
##amming
eldest
resis
freestyle
tocopher
##uent
angular
abrupt
analogous
flic
fork
sculpt
deacet
engaging
##urium
dams
milw
excep
striatal
formulated
##cg
##traumatic
radioimmuno
##etaxel
##oxys
c6
##ocarcinomas
##esa
blunt
##come
destination
malformation
pitcher
embassy
##aust
idaho
fluorouracil
condem
nitrite
supernatant
164
benzo
bruns
cohen
tic
##abwe
boots
rhodes
cork
docetaxel
erythroid
supervis
privacy
server
linguistic
162
##olor
gliomas
##ethanol
notting
wilhelm
##md
##oalveolar
convenience
decompression
proline
automob
devastating
grande
pastor
forever
182
aps
seminal
humor
##aze
conspir
plug
##agan
backbone
##oderma
##iens
declining
thorn
##entine
covalent
endang
panama
##rinted
cca
anesthetized
neuroc
methylated
##opoiesis
esr
widow
scf
pis
##isha
glycer
arous
silico
presently
joan
twitter
suggestions
anter
landmarks
h1n1
certificate
multifactorial
mitigate
##ird
permanently
163
endo
towers
microbiological
vid
disordered
vox
zhang
eve
vldl
localities
exempl
##l2
sullivan
spondyl
##yo
septum
zimbabwe
ultrasonic
mth
phosphatidylinositol
milwaukee
streams
hox
##evo
visualized
cardiology
norms
reads
##obia
bioinformatics
proposes
philanth
privile
proliferating
##fluor
##tri
lighting
ptx
##fi
consultant
intrig
prayer
puncture
haemorrhage
##orax
arose
leisure
soybean
squares
##aldehyde
forcing
##essel
bibl
##onica
vegetable
##oscope
stoch
offs
classify
##athyroidism
dear
wn
desper
ecs
afferent
##vitamin
stamp
##awi
plaus
nodular
masc
isomer
synchronous
gastr
nach
productive
heir
##hand
ache
analytic
dul
psychometric
diseased
accumulating
sigm
exploited
##kinin
##chool
copenhagen
subclass
##how
negotiations
°c
civic
uncomplicated
##120
ply
photographer
pericardial
eif
##brids
##essa
##ospital
##orton
##hall
225
cuban
##identified
shops
##ovsky
paramount
uncons
decides
cmr
monuments
##py
##uj
thriller
radiologic
fortress
##ilin
founders
orphan
aesthetic
1851
166
polyt
##unda
lone
##ие
##ensives
transitional
ataxia
reactor
defibrill
livestock
immunomodulatory
iib
adjustments
clav
nashville
uh
##efined
graphics
##sd
wur
folded
##trong
austral
##echnology
alcoholism
aub
##edients
##atche
tubulin
ada
otto
escaped
microwave
arguments
biodegrad
##itrile
##osom
##cephalus
laura
correspondence
acetylation
##irec
unexplained
##ovir
##orus
pirates
##olics
scotia
mtv
emir
insol
mcs
18f
simulate
residency
##zig
pyrim
pneumococcal
tricuspid
elusive
gases
depended
##nered
##86
sandy
instrumentation
ingredients
rhythms
##okinase
##kl
clarke
luck
enemies
franco
161
franz
measles
##ivacaine
sheffield
secreting
counted
prague
dong
lectures
nitros
##ulse
anomaly
perth
##class
maurice
giov
##neur
talks
imported
antiqu
distancing
1849
freeze
cameron
##o3
##ifferentiated
rifamp
arctic
eosinophilic
pector
toured
ahmed
ske
99m
ibm
ems
c5
mario
reinforced
reyn
theta
agn
amm
reforms
medullary
conting
acutely
alpha1
pend
##itum
hbe
epist
arrive
checked
carboxy
jor
acryl
##ocyst
bombard
capacities
lactation
angry
scalp
opioids
columbus
sludge
sonic
cadaver
replicated
chorus
delir
ober
##obenz
stakeholders
scout
rainfall
##urred
byzantine
perceptual
##furt
refined
dale
slaves
##abi
pointing
176
acknowledged
maze
##abl
undertook
crs
intoxication
strengthen
collision
saskatche
prolongation
uniqu
##amn
damaging
detox
terat
rises
saskatchewan
##ainees
oxidant
##ogrou
##yrate
astr
##illy
erythropoietin
3000
syph
technically
lenses
mib
rl
characterizing
hanging
saharan
##cht
trough
inception
measurable
##arinic
reluct
multif
tends
zip
tp53
##arri
cim
##pear
hns
slide
motivated
019
hallmark
##bf
methodologies
##eresis
##ourg
coordinates
##1r
vladimir
sparse
dans
1840
bottle
explosion
lodge
rotational
dispersed
solvents
brunswick
histocompatibility
pleasure
##endum
##opropyl
meningi
primates
legiti
believes
coded
##odulin
dressed
disagre
drops
parade
odor
glad
fractionation
1847
cyclooxygenase
deterg
lope
1853
marcus
##imension
##dc
isaac
handball
enteric
ptc
##02
##esty
brah
redund
chir
tok
craft
leather
somal
sophisticated
##rington
celebration
dunc
##±0
a1c
websites
##lag
stops
necrotic
acceptor
##ionate
treadmill
princeton
ao
attraction
straw
acceptability
aaron
microsomal
spencer
georg
##monic
edta
boos
insectic
graduation
pacemaker
exceed
laparotomy
locomotive
unt
opac
insensitive
##lain
anp
methoxy
wealthy
bulb
lunch
aber
pneumon
manit
jamaica
marijuana
##uling
favored
emergent
catast
sony
willingness
reop
dominican
thymic
discussing
divergent
ruler
benzene
committees
##ithromycin
shelter
augus
cue
anonymous
declines
smell
sedimentation
verse
b12
mangan
travelled
democrat
neighb
##ocortical
##го
##ographies
medicaid
descendants
cultivated
predisposing
rflp
apl
##oping
myofib
shakespear
electrosp
rhabd
incidences
proteomics
belle
fraud
psychiatry
clarified
##jiang
tetra
pesticides
contradic
schwann
theology
adenine
##otemporal
basil
hindi
synthetase
sediments
##bg
shaft
pauc
acres
##inia
multipl
caudal
phenolic
replicate
cations
pab
dereg
##uo
yugoslavia
tnfalpha
##amy
metap
rankings
sne
vibration
##thoracic
governed
masks
electrocardiogram
lisa
##aterials
mep
##ults
teg
resembling
sphincter
technic
reticul
iz
hanna
unve
ventilator
eugene
hsp70
lecture
prednisone
sau
coins
xenografts
acin
amyloidosis
tanzania
##ussis
##vention
aires
buses
##eplay
abduc
bark
conductivity
##utin
novelist
##nn
##ader
lidocaine
coma
##96
##oku
##atem
radiology
##ulic
periv
ubiquitous
181
hematocrit
gata
rider
pyro
dancer
essex
guiding
ned
ets
generals
postural
casting
implying
tough
necro
practiced
##olecules
##sep
prescriptions
gul
kang
punishment
formalin
provisions
##worthy
exh
adjunc
ventilatory
poc
hcl
tubules
interstate
##ashed
##entanyl
sebastian
bicarbonate
##omi
##agi
genomics
##oslo
##ovich
nonh
synthesize
johannes
strang
lamina
##mother
oxytocin
loh
chuck
resemble
sta
##t2
drb1
globin
firstly
morocco
chondrocytes
vh
alphab
cftr
mush
pelvis
cia
miguel
##ivided
cres
buenos
texture
casualties
synapses
stochastic
geoff
debuts
sailing
##ovina
lesb
##found
cyber
refere
dac
pertain
gastrectomy
emphasizes
researcher
neighbouring
magnet
keyboard
tonight
tav
arises
cassette
wedge
astroc
##inced
palestine
mif
syring
lutein
overp
##thrombotic
novelists
grandson
retreat
strips
numbered
##unes
##insky
##76
semifinals
020
sacc
mock
biochemistry
chilean
polo
ming
conflu
polysaccharide
compares
defines
infective
dome
sonography
reviewers
##anial
plum
quest
mck
jes
hydr
readings
malaysian
occipital
demanding
##odom
thesis
xl
heavyweight
173
carbonyl
guitars
nifed
eliminating
krish
tuning
quantitation
bite
##rophys
teamm
defender
nondiabetic
cervix
diphenyl
gmina
pete
impressive
shakespeare
cdp
##orad
iraqi
forget
encapsulated
ceiling
cheese
##74
dvt
periphery
##acute
vigorous
radiologists
denom
vine
##ophylline
forgot
##ед
volumetric
slopes
ozone
directing
layout
grants
hybrids
patric
gospel
outlined
fingerpr
trabecular
revenge
endings
##ifiers
interdisciplinary
##aire
undes
grim
##glut
raid
essays
terminology
bicycle
highland
nifedipine
##aterally
##pg
immunocomprom
deh
pgf
glomerulonephritis
performs
##americ
discrepancy
ceramic
pedig
fidel
1846
chiefs
relegated
obsess
172
demon
stems
vitamins
configur
monomer
##ometabolic
histidine
anore
##emann
branched
##onazole
valvular
elegans
##ucleotide
contracts
congr
flesh
##ocatal
disestablishments
lox
antipsychotic
s2
##operoxidase
cosmetic
specification
nz
mobil
wrec
##ticals
tilt
eus
periton
nsaids
pant
pulling
phenylalanine
##94
desk
lactobac
restrictive
##bie
radion
paying
washing
drought
##peritoneal
##ologically
##nell
unic
2h
apoll
chad
emma
hydra
artem
delic
lars
prisoner
congregation
##icked
absorp
collegiate
harboring
lithuan
consecu
reconc
##oblastoma
ronald
presidency
subarach
nim
stair
lopez
chal
##isy
playstation
##rio
pursued
debris
kall
curtis
reviewing
myocytes
poses
rhesus
##trials
petition
oils
contractility
tad
transg
##oge
neuropsychiatric
##actors
metric
rut
protestant
##xine
cpt
sack
inducted
##eptic
synt
peas
adversely
haiti
santiago
yearly
thalassemia
##ffer
##arity
lia
sailed
lentiv
blake
midfielders
##onne
fmd
recycling
bronchi
resur
##ardiac
ignored
##omar
oligosacchar
cpp
drunk
segreg
##ultural
nancy
##apamil
gcs
##acheal
immigrant
microbiome
valle
shi
organizing
episcopal
pipeline
graduates
hopkins
##iximab
abdul
##trum
safer
herni
cochlear
##urea
##eson
frontier
counselling
##ede
##orin
primate
helicopter
bennett
compass
##rolase
##entral
screens
pressed
glycosylated
##erum
hass
afc
midnight
devon
disciplines
vaso
##lys
advocated
ticket
endangered
medically
indianapolis
pertussis
adenocarcinomas
internalization
masked
customs
##emias
hydrogel
sterile
weaning
cds
paste
##lov
salvador
wals
##encl
promised
rabbi
bills
inquiry
phrase
twist
esteem
supernatants
##idia
mollus
owen
horizon
##amate
##phis
mosque
##icus
##gio
preex
##wt
disposal
pharmacists
resignation
sorafenib
postmortem
explicitly
biomechanical
continuation
benefic
203
##ozyme
cyn
pie
##april
sind
expense
##iba
travels
taxes
exosomes
randomization
spotted
checklist
neurodegeneration
intima
neurotransmitter
alternating
polymeric
durham
bifurc
droplets
biased
convinced
kris
repaired
fentanyl
ner
abraham
##oko
##elected
##epr
terrestrial
quartet
somerset
crazy
linearly
relates
cyprus
abstinence
artwork
diving
aggress
upcoming
approaching
antarctic
polarity
handic
##brt
paralysis
recap
harper
tha
202
mtb
parametric
prosper
bariatric
208
##anin
prere
minerals
floating
##borg
herzeg
longev
responsibilities
##ben
rape
##abolism
wireless
##esco
pcp
midfielder
mahar
nocicep
calp
##cu
tribal
mumbai
workforce
dots
nasa
damages
lah
locomotor
contextual
oakland
depolarization
##opyran
bacteremia
trom
rachel
algebra
ambul
##yles
##oting
##reval
suspect
##licating
transcatheter
cryopres
gand
brooks
peritonitis
scid
nephritis
pupp
jake
continuum
palate
kj
tracts
counterpart
serocon
spearman
sclc
niche
isle
timeline
prednisolone
vocalist
##ysm
inexpensive
morbidities
garrison
albanian
laf
aboard
jointly
iiia
mers
millenn
##ogeny
lvh
palestinian
204
protagon
calculating
##ynchron
bony
subarachnoid
lncrnas
supplemental
sagittal
##arges
synucle
##tructures
dont
administrator
brachy
##oslovak
b6
##ин
##rophot
versa
tolerant
threonine
spatially
##arag
chapters
irs
mucus
##ryst
##rum
pct
priests
theoretically
consequent
complaint
leices
czechoslovak
zen
reprogr
tremor
##obarb
##noea
radioimmunoassay
lords
hsc
climbing
stun
##ourt
##theses
sank
bronchoalveolar
decompens
intimate
colin
offset
polarized
electrons
##antly
##etus
hrt
##acao
longevity
5000
polypeptides
seropreval
maturity
laparoscopy
mutagenic
fibrotic
mpo
fortune
anap
##atta
erectile
puberty
neurodevelop
##wo
hypere
qrs
nonsm
defended
appeals
intentions
stevens
diethyl
customer
reef
##ocor
##iline
##uania
gambling
micelles
methodist
exceptional
rainbow
##oshi
probing
sanct
ketamine
olds
airfield
ria
postal
fulfilled
neuropathic
scratch
immunocompromised
##terone
immobilization
sew
stereot
171
##yclic
destro
oligodend
##oxia
##azi
gwas
cfc
##roe
fvc
pianist
purity
206
adri
proceeded
thy
consecutively
syphilis
radiography
isop
attenuate
jav
##idus
standardised
spill
ipf
clade
trent
extraordinary
hyperth
please
##ersed
##olly
synuclein
packaging
torque
subtil
lithuania
cyclists
discoveries
entries
stretching
epidermis
ligh
setup
laryng
mph
lump
fires
verapamil
ung
##ław
continent
holder
fluorescein
posttraumatic
svr
divorce
##atite
speeds
nah
##luor
shedding
spy
meh
delirium
uncovered
ancestral
framing
qing
##uploid
psi
decid
##elioma
##iella
rct
neurotrophic
##imensional
jas
shots
semiconduc
##adec
##enko
louise
clinicaltrials
##atable
skilled
plains
##oneg
abstracts
disclosed
hev
temples
1830
monten
dozen
##bd
hydration
exile
contacted
thiaz
bruss
rpe
unidentified
biphasic
gdp
dendr
collaborated
appetite
transiently
transcriptom
##ensitization
missionary
##tera
##arum
##absorption
amylase
fabrication
kills
##uclide
##atility
vall
croc
herzegovina
##mans
##foot
##utri
oliv
rfa
brut
clostr
proposals
tune
##entre
##ypsin
lobes
resembles
##oxon
trout
paths
java
sard
suburban
syncy
jaund
##iaries
certification
osteoclast
antin
resections
repairs
acetic
##oplatin
##xs
##atism
georgian
asbest
departed
##cranial
plaza
solved
anthr
wuhan
212
cameroon
mansion
fond
dextran
##3b
thumb
connects
##dal
##ilding
cing
ova
manitoba
##avia
titration
mdm
voyage
clip
kenneth
по
button
julia
triphosphate
uroth
kad
firms
nil
##tone
goddess
penetrating
mythology
kob
strengthening
##ronate
256
sustainability
folic
philosophical
##irculation
##nm
rebels
##yne
##annon
fuller
approximation
literally
nationalist
maximize
bombing
##uminal
manuscripts
##aku
##nac
ellip
nephew
gerald
##avirin
nun
refractive
##lial
twentieth
boh
hitler
orchestr
toxoplas
viz
tomographic
obama
fibrom
mg2
cd13
catecholamine
##bek
draws
melting
##gus
##evelt
cau
pathogenicity
renown
governmental
oest
suggestion
onwards
militia
luxemb
##onitrile
symptomatology
##olus
macroscopic
calmodulin
hyperpar
strings
uph
##vert
stin
##pen
canyon
backgrounds
##itions
##ит
##ocytoma
advisor
patriarch
washed
lithuanian
intracerebral
listings
##odipine
symmetric
iia
macd
rhythmic
##iversity
costly
celtic
manufacture
##front
##otropy
duncan
mimicking
1845
pitched
sussex
222
nip
##agglutinin
triangle
gael
danc
anaphyl
##enopausal
presbyter
rookie
##sten
serotypes
secular
hepatoma
##rofloxacin
seemingly
lut
bik
ornith
doubling
ellis
preschool
overwhelming
orthopa
physicochemical
lept
##kat
inev
pluripotent
ribavirin
eccentric
##bronch
duoden
vinc
puzz
muk
oat
cathepsin
capillaries
sweat
##asse
rnase
dolph
deduced
zeta
jal
##notes
incorporates
##anto
pharmacology
vertebrates
##achlor
branching
tul
##birth
excised
##eav
imatinib
h4
feminist
lncrna
ccr5
cafe
edmund
transducer
##e1
sis
bros
manila
burial
rca
##agne
communicate
##osensory
lover
##zon
nanoc
uncon
muscarinic
warrior
simpson
neighborhoods
carnitine
perine
awake
celiac
rbcs
proceeds
cliff
burials
orthotopic
##ylic
tug
spectrophot
deprived
spur
premiers
rodriguez
maf
bankrupt
airline
hin
##uer
highways
wrapped
tocopherol
prel
feels
retaining
qrt
exciting
nephrotic
atg
inverted
hoff
humidity
seroprevalence
amide
hyperinsulin
urs
##adier
wilder
exterior
parity
superint
grammy
teles
specially
extrapol
sulphate
##inities
sting
manganese
ator
citing
##illon
##facial
destructive
antidi
phosphodies
porter
comfortable
calibr
interfaces
ez
##apur
emily
roosevelt
cyclohex
borrow
logo
coral
magne
ducts
reinforcement
hoping
flame
engr
tuc
##lar
tackle
ctc
thaw
motorcycle
fatality
entropy
conceived
depu
authored
busy
1837
lyon
attacking
workshops
##tico
pilgr
modifiable
##tite
hardy
submuc
##idis
dodecyl
gleason
consultations
palmer
pparg
postsynaptic
leiomy
formats
##nu
standardization
wax
americas
hammer
replied
##df
orthodon
configurations
monophosphate
##icated
indies
eclampsia
##84
cob
##ibe
cardiometabolic
eic
labelling
stably
1200
##raid
##face
sibling
##urate
##ulsions
citizenship
rectang
##oped
contour
##quisite
commanding
##iza
liked
##etent
##robor
predecessor
##music
telemedicine
sweep
##ilum
interrel
elis
curvature
##amento
une
##ingham
scaveng
hypop
##actone
seminary
immunoblotting
endocytosis
guatem
seeks
felix
knocked
istan
abi
tert
##quilibrium
330
malta
1839
davies
hotels
pounds
arrow
##anca
unequ
##umann
##etto
223
disadvantages
arte
r1
broth
virological
##ectomies
##boro
adsorbed
proteome
##rals
litter
##tillation
implication
minimizing
barrett
advocacy
##brook
myo
freight
incidental
divine
physiologically
1844
215
clerk
provisional
##books
applies
metre
functionalized
##etz
visually
##antile
pim
pss
##etical
alleviate
slavery
calg
tributary
wi
yun
performers
disclosure
vend
##atrol
philosopher
choroidal
##91
mammography
rectum
overestim
rms
desorption
##lord
nint
conve
##adays
##osclerosis
uz
rnai
utero
214
tornado
butterfly
shortage
potentiation
##beat
prod
221
024
##inda
dependently
apoa
implicit
cd16
quarterback
nosoc
##ialdehyde
##93
allan
confid
brussels
##cales
##mir
ebp
arousal
308
collapsed
prospect
transmitter
surnames
nowadays
hardly
terrorist
conjugation
##oste
centi
holmes
##boat
explanations
tia
harsh
023
restoring
##ynamic
theatrical
hnscc
##vet
steadily
undifferentiated
tregs
parp
cobalt
gus
cater
carbohydrates
nickname
istanbul
##iso
##orem
sene
boulev
hess
atorvastatin
noting
disbanded
vigil
assim
remed
marking
##alcoh
insignificant
##amicin
introduces
disrupt
raph
subsp
accomplish
synonym
albuminuria
##strom
transduced
corridor
demanded
##cor
schedules
thunder
pist
oxy
avp
##onge
skating
claude
guess
seoul
##uretics
nathan
hik
pyramidal
streak
022
gameplay
##itivities
inspiratory
elaborate
lynch
probabilities
remodelling
footage
utc
scream
methyltransferase
##lofen
thoroughly
##ognitive
contracted
ehr
##igs
laminin
gpi
medulla
##veratrol
ild
pdf
028
mog
infectivity
##hin
precl
adrenaline
referendum
##ishi
complained
personally
pouch
rebel
##oprol
karyotype
ribonucle
nintendo
shoes
##tebr
216
glouc
bending
subdivided
ibr
transcranial
batteries
##berger
##aric
bean
solomon
##cz
tampa
kinematic
capitol
priorities
hek
qi
##assays
tumorigenic
##osphere
deliveries
sculptures
##tv
1841
classroom
##phen
witnessed
cornwall
armenia
microspheres
stab
primed
traces
convey
oesophageal
sylv
furniture
apr
vasoconstriction
nosocomial
upset
constip
bailey
biosynthetic
giovanni
heated
taiwanese
theorem
airports
emptying
perturbation
diuretics
25th
denis
parenting
morphologically
igg4
hots
##0000
seeded
lus
translate
##acrylate
jh
myx
##ashire
##mtc
scandal
ovulation
##hou
cuc
drift
estonian
ital
galactose
powell
wrestlers
kumar
##alid
canter
vimentin
g6
##odi
dug
lancashire
participates
nineteenth
stal
heroin
##atre
equality
confers
bitter
oslo
stolen
corrobor
1820
obstacles
##orylation
##trig
uf
antiserum
neglected
fragile
##ellate
parasit
mcr
edmon
##nem
##elian
welcome
reoperation
ovari
estonia
carcinogenic
hate
##ithm
gav
combin
mucin
anders
quarterf
npy
monolayers
shuttle
resveratrol
servant
creator
##hor
poisson
1α
massacre
##regn
##oj
##elly
suburbs
symbols
##oure
hopes
##reneur
galaxy
simvastatin
xenopus
thermodynamic
aba
dollar
boot
1812
drawings
interrog
oriental
modulators
multicentre
worces
##uble
citation
sams
microalbuminuria
arsenal
fuk
catalogue
girlfriend
vitreous
550
eluting
polyd
mirr
##oter
episodic
cannon
neglect
urethral
nobel
dysphagia
unemployment
teh
##gang
html
minus
tremend
connor
##othermal
retroviral
convergence
directional
sculptor
packing
backward
oroph
hemangi
justified
evaluates
aldh
helm
lined
dag
nonf
vals
cbt
ascorbic
payments
wyoming
impuls
##ylan
determinations
##anton
lifespan
##ecraft
chemop
frankfurt
bronchodil
218
bilayer
posture
reorganization
amalg
entrepreneur
amplitudes
diurnal
##gun
stressful
beams
hak
##azolam
tah
somewhere
versatile
discrepancies
polyg
ludwig
glycolysis
1843
##rier
027
marble
endorsed
nacional
##rically
1838
repr
h3k
executives
evolve
##inates
announcement
maker
hazardous
monk
testament
exud
gef
dimers
ufc
uno
trium
026
transparent
##rology
tactical
reasoning
hamlet
arbitrary
kum
##nc
211
anthology
tonic
predominance
psychopathology
westminster
##ibus
wished
tace
polyuns
escc
vire
anorexia
rosa
ferdin
209
##uru
hels
isomers
specificities
fernando
analytes
guanine
##ean
prok
lightning
1r
##iman
jaundice
##certained
cholecystectomy
l2
baro
thalamus
subcutaneously
tagged
##seous
electromagnetic
peroxisome
##ulary
##isive
undergoes
##rat
##aru
appl
amh
wheels
##rage
rent
nephrot
rovers
vdr
cta
##onso
##forward
midw
adjunctive
rochester
##inin
##ysaccharides
paran
enterp
##imo
controller
##eliness
diaphragm
sorb
relieved
fault
##osts
averaging
dentin
##tel
diminish
##estrian
infiltrate
afraid
shadows
qs
claire
submission
authorized
hierarchy
imprisoned
cheek
##cam
##ishable
aunt
ascertained
207
kend
dividing
reformed
nj
##stown
##ocrin
bmt
adrian
plausible
slovenia
##naissance
echin
238
koch
calgary
##olys
##estry
##icz
tril
inference
1842
blond
##prised
caroten
chemotactic
tailed
##apa
1835
comedian
leslie
asians
endometrium
##c3
subord
practicing
guarantee
##othorax
##200
nis
recognizes
fundus
bryan
yak
nont
##orrow
cuis
moisture
trapping
biodiversity
tio2
proteolysis
##ercetin
##b3
evapor
boulevard
educator
mysterious
##pot
acquiring
kpa
##str
jennifer
paroxys
##inas
hirs
petrole
townships
##yme
cofactor
thematic
chloroquine
handled
cornell
khz
proteinase
##andibular
##genesis
dwell
designers
memphis
##avers
registries
plei
1832
ophthalmic
poultry
singular
surprised
##emon
##yrene
lucy
boxes
ecosystems
wanting
sabha
herd
starvation
##oons
accommodation
eyel
migratory
ciprofloxacin
srs
phenol
##ioventricular
socially
richardson
outlet
progeny
##clusive
##amation
##ku
geneva
##pling
travelling
duk
isometric
stairs
polyunsaturated
jets
##fications
syll
glenn
sickness
infect
roth
taxonomic
oscc
inflation
aka
oxo
dund
##alently
belgrade
ovid
hens
bigger
##arten
murders
aneuploid
tmp
copa
foundations
asbestos
ruptured
slovakia
zoo
modular
1836
verification
superiority
theological
tyler
fischer
##ocys
gln
mere
haemodynamic
dizz
chances
trast
##astically
ferg
vasodilation
cron
upright
mechanically
benzyl
trisomy
edmonton
264
gra
pach
##oprote
bridging
commanders
ordering
##istine
99mtc
##alus
##asaki
aed
newfound
optimizing
##anmar
circles
della
lobby
orland
uremic
uniformly
distortion
emin
sp1
##uba
lecturer
reynolds
oro
b7
clad
dispatch
hedge
saxophone
##ureth
fuz
##tc
##words
poster
chef
neutron
ara
metam
annexin
electroencephal
##urities
jamie
estates
ain
smears
beings
cps
gos
remnant
##orious
slides
##users
smoked
renowned
bedroom
##atha
##appab
civilians
valued
myocarditis
hyperparathyroidism
conspiracy
anticoagulants
chlamydia
cytoskeletal
sailors
privately
quint
surrender
groove
constipation
##opharm
subpopulation
reconnaissance
posed
hey
##holder
imid
teenage
bundes
sensitivities
casein
geological
practically
gauss
##tude
alv
imagery
##chus
tz
psychotherapy
rounded
newport
martine
benedic
kann
##ingual
fad
wiz
##quet
occlusive
warming
dislocation
deputies
##82
batman
reconstituted
##odar
cohes
carboplatin
embark
canoe
##anous
praise
##thi
fare
possessing
235
paralympics
hemolysis
topology
##ariance
cannabin
kilometers
clearing
sacrifice
qualitatively
ahmad
coached
mimics
stabilizing
##ocysts
heal
armstrong
dart
intraepithelial
worlds
##obacterium
atrioventricular
iat
sanch
exagger
affinities
##ref
andrews
householder
##mr
catecholamines
leukotr
mund
grabbed
petroleum
pupil
aeg
discs
scanner
tomorrow
flooding
##03
doctorate
##ochlor
corticosterone
quercetin
anastomotic
interconn
serp
lomb
##f4
nadh
preexisting
bonded
epidemics
uniquely
##idel
definitely
comparatively
seld
happens
sct
dehydration
##ophenyl
lining
observatory
actu
##umes
staying
pipe
##flies
telecommun
##had
exhaustion
2r
email
##rem
##chan
rapp
hunger
##asin
lug
unrec
synapt
curved
freshly
##ymethyl
boom
facade
##param
humanity
affiliate
##idian
flowing
benchmark
myanmar
stric
wend
worsened
homogeneity
##emma
##rofen
dz
anchored
devised
migrants
cameras
dissip
##acial
##orrhea
2c
##inn
qtc
goat
rapper
dft
diuretic
zamb
gastrin
perpet
swim
screenplay
bradley
arrives
traced
henderson
albania
##tii
urgently
canterbury
inferred
scavenging
niddm
glycaemic
anomalous
orthopaedic
unanimous
kingston
immunogenic
quantifying
zurich
terrorism
culturally
accent
spirometry
wednes
hampered
foam
##rophin
mediation
lucky
telegraph
enterprises
tae
##ische
inches
halluc
##tonic
##tible
blindness
##ogo
parotid
##anche
accidental
multimodal
340
microflu
slam
wasn
nalox
vulgar
excitability
213
portfol
janeiro
exemp
controversies
spastic
ctx
##eason
##tigm
foun
cytometric
##oplast
pcb
dyes
marketed
methicillin
extant
assurance
etop
wagn
##ecd
##apop
attract
cheap
##children
tnm
philanthrop
feud
logan
##odys
hhv
convinc
mthfr
quarantine
##lett
##oux
lister
##idym
discriminant
jia
contributors
oedema
nadu
osteoblasts
atrop
requests
swab
burnout
societal
##atri
pga
035
remar
default
grains
estrogens
##83
clash
developers
glory
650
trastuzumab
linda
purely
oligonucleotides
##ylene
##ashtra
specifications
intelligent
constantin
realm
exacerbated
bradford
clotting
organelles
##kok
sca
fx
redesign
##arez
caroline
##agr
huntington
methylene
rolled
methan
condensation
ety
doctrine
breeds
zu
notre
surpass
cd20
kom
##1a1
floors
streaming
engraft
grandmother
granulocytes
karen
##ogan
horr
postt
##boys
drow
electromy
##otecan
leishmania
divide
##odex
trek
dosages
dopa
fountain
obliter
##obarbital
hypothetical
carc
linker
fron
hydrocarbons
divorced
jumping
pcl
##formed
consolidated
madag
silicone
anxious
cancerous
harmonic
chaos
sik
chev
mildly
subcortical
maneuver
integrative
##grp
microtubules
phthal
recruiting
fees
etoposide
wilc
##oproter
thrown
##amphetamine
##agonal
##acid
neurotoxicity
##lovir
elemental
antiproliferative
hann
capturing
##olinium
salic
nass
redistribution
ocd
gentamicin
chemotaxis
consulting
rode
idol
encompassing
13c
centrifugation
antenna
drying
maori
testim
cly
ihd
malond
budd
apache
qualities
calcitonin
sanctuary
tod
osteogenic
stup
beaten
gibson
chow
chorionic
chromium
jeremy
stefan
interruption
methane
contaminants
theophylline
agreements
##jay
monoc
conquest
##ivir
uveitis
posthum
375
legends
##ported
intriguing
virulent
phle
fcc
weld
binge
espn
chag
reapp
hitting
pus
##itized
doped
thyrot
imperative
##gran
paus
leip
investigator
##translated
reiss
barth
tsp
naloxone
dressing
ccc
cherry
agu
osteotomy
precondition
opt
inland
##uder
290
meyer
syncope
224
##x3
clinicopathologic
coherent
activators
hemostasis
ventilated
hyperthermia
lifelong
penile
yuan
adenylate
##tones
clues
ovaries
toc
##onegative
kyoto
pressing
sexuality
presbyterian
boxers
senegal
##ioid
##ullah
swallowing
##fp
##alcoholic
wrestler
zoon
##562
automobile
##andy
##lis
lutheran
serous
guys
pleasant
mannose
transd
compensate
somehow
v1
testes
##sted
gob
mosquitoes
stance
amphip
bubble
##urp
seas
anarch
songwriters
fon
diplomat
filtering
armor
adopting
lesbian
cardiff
ligase
flavonoids
##ор
pedicle
##astin
##oprolol
contig
0005
tibia
##eded
thurs
originate
##bird
reconstitution
oncological
stereotactic
histi
migrated
pdac
epididym
dud
lef
chronicle
##optic
caucasians
buccal
preston
superintendent
exome
catholics
throwing
colours
dancers
investments
kot
lax
##bp1
##alan
stabilize
sugars
invitation
latex
fay
surrey
xr
implantable
goalkeeper
##aryl
balls
##aginal
elastase
ingu
##ql
goats
pharmacodynamic
workload
batting
burd
etiologies
agenda
mlb
dialect
##kb
rop
accr
orthopedic
hypertrig
fiscal
bhar
mandible
narrowing
orlando
icon
inscription
##iere
##m2
triaz
allegations
ussr
##utory
boxer
msi
delegates
cholera
marshal
##ondo
##attr
paroxysmal
##iffe
malondialdehyde
##eny
kp
robertson
prehis
destabil
tactics
bronchitis
durations
ally
marian
modulator
millennium
momentum
biogenesis
mayo
##stage
##erin
dcm
snr
retroperitoneal
inr
investors
deadly
leh
deciding
victories
ferdinand
##125
survivor
extrinsic
##zel
reid
capsid
tka
collector
ruins
endeav
eccles
gondii
muss
mongol
zam
potentiated
badly
mitosis
polymorphonuclear
ori
etym
thyroxine
##alez
donations
emil
fidelity
twitch
chocolate
strat
bulls
dlbcl
##piece
willebrand
genotypic
trustees
##v1
inequality
scrap
lenn
paragu
pufa
310
##map
thank
pertaining
tertile
misdiagn
ureteral
durable
trigem
cuisine
andrea
hul
dragons
colombian
eli
fbi
hba
##yse
superm
pfc
constrained
survivin
##astr
forgotten
##arms
napoleon
##timulation
cystatin
bomber
##db
osteoporotic
sharply
##rock
struggled
adoptive
multifocal
dign
twofold
ethan
secondly
cartr
##ør
crafts
robustness
covalently
##atized
hypertriglycer
pik
##kees
profic
dwi
1834
performer
brent
presenter
##chair
bloody
c18
impairs
swabs
equine
##een
urothelial
##vr
##apar
##600
kyle
retiring
n1
wag
boarding
##rocess
ciliary
suitability
untranslated
bowling
wei
posttransplant
thp
bla
amphetamine
iw
kazakhstan
discer
##top
presynaptic
##acr
##andra
laps
suspensions
lobectomy
pushing
myr
logical
##delta
paucity
midline
##cion
kai
prospects
partnerships
marion
ileum
rowing
##quinone
followers
alloy
nominal
##quer
##ap1
invented
##kk
rendering
depress
audiences
cornea
uttar
transpos
gins
appointments
##asco
trails
luxembourg
hept
aun
beast
##oreceptors
certainty
alfa
permiss
detergent
banner
##idt
minne
fears
##isk
029
ruf
kuwa
stafford
instructed
shrink
msp
illumination
expans
nef
lal
vale
##ached
nominee
gaming
stad
clonidine
allegedly
pcc
##ropical
celebrity
invertebr
pleth
effectors
lebanese
##acetate
repetition
seated
##itates
##estration
cotrans
sos
expresses
##azar
##oan
pharmacotherapy
##idea
tubule
addic
unmet
##atan
unusually
generator
217
rica
dwarf
premenopausal
3t3
##oron
##axin
bcs
anywhere
wagner
secrete
##eh
crashed
##oproterenol
subacute
splitting
lance
azt
##othiaz
topography
cellul
hcm
##loys
trev
geology
##andro
iddm
lawsuit
diffus
alpha2
420
jesse
broadcasts
tut
heightened
pathogenetic
congestion
fim
ingested
sre
catalysis
algeria
rican
exceptions
##adone
altar
isoproterenol
secretions
##hail
modulus
##server
##bel
tetracycline
amorph
marco
holoc
fraser
##iaceae
gastritis
rpm
rivals
glycated
trips
reactiv
##acylglycerol
washout
perturbations
lj
photosynthetic
noncoding
maharashtra
##b4
dysfunctional
dirty
##nants
nikol
tee
diplom
fibrils
escalation
osteoblast
nsw
##tizing
innovations
portraits
intratum
warrants
wand
insoluble
nicotinic
cts
##bol
cms
fug
auction
prair
electrocardiographic
evacuation
risky
intercourse
concludes
compensated
leishman
principally
abandon
punct
zol
normative
##ylum
atherogenic
mct
bpa
discharges
moor
fertile
##actable
toe
reside
mole
##itoneum
##aram
microarrays
##uca
spores
carotene
legendary
crosslin
receipt
courage
depths
clara
fow
clostridium
##ew
hiding
difficile
instructor
##falls
alloster
cinemat
antit
obscure
fak
nyha
belfast
##qual
1815
##acea
lactobacillus
quies
retinol
mesa
sink
grafted
tec
sliding
##enzie
laying
sga
relied
bard
gonzalez
##oxib
whist
cubic
dubbed
219
##observer
lynn
##roads
edgar
prion
dealt
celebrate
imprisonment
##ortex
attentional
pertin
accred
chelsea
hsp90
##entioned
remnants
concomitantly
hbeag
imrt
subscales
bedside
keen
depicting
wildc
rotating
triage
gat
touchdowns
honored
mesang
traction
iodide
inacc
exploit
e6
##wid
biop
harvesting
coenzyme
##atsu
strikes
singleton
cingulate
insec
biblical
##abin
##azolium
currency
rfs
burton
wesley
seized
##zan
multifunctional
oestr
disequilibrium
##ulent
ideation
##arenal
derek
marl
275
microbes
unconscious
ffa
inguinal
observing
hash
developer
dropping
ellen
hbo
apps
endocrin
airflow
parishes
ionizing
madh
stuck
indole
bedford
cd28
alto
contrasting
bland
β1
cep
bullet
anions
utilizes
prostheses
trh
abrogated
homo
bulld
upgraded
immunoglobulins
translations
032
shells
perfectly
##jin
##arded
anca
cpap
##yside
dysregulated
##ostat
p27
##imon
пр
cruise
llc
##ylo
outre
crispr
##81
##emide
bph
bruc
julie
##mu
feces
overdose
036
##ellers
mastectomy
underpin
##akary
engraftment
cores
unsaturated
cascades
crom
debated
scn
antisera
nw
comet
morphogenesis
bolivia
mycobacterial
infrequent
на
mba
colocal
milton
mentally
##icia
heterozygosity
##cnac
affordable
quarterly
papua
terrain
bce
conformations
folds
analyzer
##graphic
methadone
hugo
leipzig
transmit
circumfer
infinite
##ilion
lyric
##illed
etiological
##imburs
sert
wander
limestone
manages
rhabdomy
impulse
needing
budap
aper
strands
qa
##ipramine
##coagul
outlines
regimes
clut
creatures
##oglycans
barnes
ppd
##horn
g3
rosen
xv
dmp
darwin
expatri
##woman
##arre
joel
berry
budapest
bradyc
typhim
boris
mcdonald
vasoactive
invis
zym
predictable
solic
##atia
maldi
uruguay
middles
pwv
pancreat
haemodialysis
##istingu
##bronchial
capsules
pean
##ype
ambulance
rer
ca1
brachytherapy
##olis
grin
bangkok
prodrug
armies
tensor
vesicular
tolu
h5
cnn
reimburs
bfgf
0002
1833
ngs
##irt
sofia
##ellites
weighing
##rops
madagascar
##ointing
ctla
vivax
abnorm
innocent
##cycl
inconclusive
transthoracic
antagonism
##ogaster
hamsters
duodenum
typhimurium
tcm
servants
neurocognitive
ammun
greens
nct0
ppargamma
##istance
indie
algae
##ucher
##group
meld
##dar
gonadal
nonalcoholic
arv
sich
rbd
organize
ccs
biases
##kinson
365
underestimated
cus
##ocele
rulers
mesop
##ophenol
dishes
226
ccff
##adjusted
revel
slowed
inte
lytic
##bled
manually
miners
##ocer
nationals
vagal
stationed
proud
enthusias
##fection
invaded
illicit
##udin
carbonate
tuberculous
dialys
finale
stature
pepper
shelf
happiness
economically
pud
xp
##inski
neovascularization
pbc
stays
interpreting
sits
inducer
rs10
detoxification
##elsen
hnf
##anu
##ostal
1831
interpretations
flute
appreciated
##ammed
auditor
reservoirs
tremendous
subdivision
vn
upreg
fier
sacrificed
##ija
##arines
4d
doping
pei
037
##xone
ccffcc
##kle
whip
fossa
##axial
##tus
halt
volcano
regiments
##rella
exchanges
innervation
##ospasm
gbs
sentences
##157
##crp
##ecia
enlisted
pcv
lots
tenor
hok
edit
catalyzes
##aton
glutamic
mineralization
slit
##clim
ribose
##ubercul
045
employs
k562
aberde
decarboxyl
psoriatic
varices
unrecogn
yi
##igi
succeed
##aner
bred
harmony
dith
stared
trainer
nottingham
neurodevelopmental
##ovol
expatriates
pumps
ferm
consec
5d
233
##ups
agr
inhabited
##olipids
##amers
inward
omn
rhine
tackles
h7
ammunition
drake
bike
##yx
anisotropy
microns
crust
ogtt
inequalities
##tho
##named
spacer
##imumab
pups
##anum
##with
lepros
poles
dissatis
232
##ylob
##isers
trainees
malcol
aggregated
cay
fool
viola
##osyn
boyd
deser
minneapolis
decree
kenny
##odeox
rex
##star
schizophrenic
ancestor
serology
##kines
##emoral
nordic
nebul
yoga
holdings
newfoundland
##ом
##eratin
albany
brien
troy
##apoptotic
##cos
liability
humanitarian
creature
rectangular
captopril
esi
textile
emphasizing
yourself
dispersal
minorities
financing
xin
favourite
screenwriter
overlooked
virtue
##mos
psp
tourists
mbp
discovers
troop
pension
pled
nicolas
genotoxic
naples
tnbc
carroll
abbreviated
##92
##jd
walks
##guard
##being
370
climb
clergy
slot
kok
elucidation
plymouth
034
adduct
autoantibody
orthodontic
mentions
monoxide
pemb
##inki
incen
mayors
allmusic
bloc
flip
aurora
pomer
##oden
render
appreciation
##trate
adl
##lep
empower
nato
centred
santos
bactericidal
contestants
intensified
cheng
arcade
lpl
##pine
holocaust
multidimensional
fake
ankyl
disparity
brilli
trigeminal
baltic
cyclone
gustav
coordinator
##rovision
linole
malcolm
theodore
neuropeptide
cytokeratin
combus
archaeology
encompasses
webb
implied
phosphatidylcholine
mesothelioma
tian
gadolinium
moieties
biographical
loves
diana
seroconversion
spong
##isen
digoxin
jab
gaelic
touched
baroque
lysozyme
##aders
speedway
melody
##иче
prolapse
martinez
conson
unresectable
compelling
rebound
nix
seronegative
romanized
##len
tired
##aminidase
saph
marines
mmps
##oye
phagocytic
##toz
heritability
031
repressed
unpred
polio
maid
##idomide
strait
shrine
##acterium
phosphodiesterase
##onna
berm
038
ileal
##ostin
##functions
wishes
canals
##emi
raiders
wellbeing
cah
nigra
seaf
bradykinin
abnormally
anto
insert
pda
infiltrates
rebounds
zno
luteal
goss
awak
asthmatics
rao
repressor
##onc
048
pahs
separating
##omia
beverages
wednesday
ceramide
b3
plural
infantile
confirmatory
expenses
puts
480
##inding
paradise
sarcop
sponge
irf
kurt
##urated
feder
nsp
##like
lipophilic
megakary
mistr
##otherapies
gujar
mvp
triumph
collar
intramolecular
serologic
forbid
##uronic
p65
trinidad
##athetic
promotional
incred
deuter
worms
windsor
creb
##walk
uprising
winnip
advantageous
morrison
##roduction
##roced
obstruc
straightforward
injecting
##kinase
brigadier
##hc
rak
##asian
compulsive
granulomatous
reup
monomeric
1600
##osc
coexp
228
efficiencies
premises
deteriorated
mycoplas
guides
bead
##endicular
carbam
monocyt
expectation
monetary
##yrib
wherein
046
atropine
congreg
brighton
spirits
##adors
taf
delineate
julius
caesarean
groundwater
metalloproteinases
incis
nox
monos
plantation
##level
ptp
##tebral
catalysts
predators
stur
carcass
contraception
sach
zyg
acetab
claus
##ubated
witnesses
wein
agrees
reuptake
grac
treasury
attenuates
drastically
thromboxane
emmy
exaggerated
playwright
outper
tasmania
##ingo
filtered
garage
chl
033
endoc
glow
worried
alcoholics
passages
accepting
weighed
diploma
ggt
stephan
martha
verd
eurovision
yar
##lasia
fuj
excreted
pras
rifles
##uper
fergus
devoid
##toric
carne
380
##izo
yok
igg1
dss
cid
frig
hepatotoxicity
rdna
amber
eosinophilia
hcmv
jak2
classics
hosting
hydrocarbon
taq
preinc
preventable
hawk
multis
hect
1825
##ymore
okay
##istinguishable
winnipeg
px
bere
##earing
harass
perpendicular
pok
unh
liner
homet
concerto
scanned
bronchiol
dias
##ographers
##cholinesterase
cytological
intral
upward
energetic
georges
strengthened
staring
##evic
##ilo
amorphous
metastas
galactosidase
cine
mox
lancaster
wg
ict
##sburg
justify
crab
methylp
disintegr
medall
roland
invasiveness
appraisal
annie
guitarists
pea
subtilis
neurophys
walt
macedonia
##iagnosed
yemen
cardior
sympos
##ygo
waited
039
amr
amines
probands
reconstructions
asn
pertinent
easter
councils
245
elliott
rin
ari
knox
transgender
sip
##asan
porn
abbott
##abulary
##ropin
unaware
vera
hypoglycaemia
ucla
burke
24h
placent
theolog
1814
##viruses
##itzer
##ifera
runway
cyp3a4
thames
mandate
reprogramming
toss
bundles
screws
1828
aldehyde
elongated
enclosed
quoted
hometown
droplet
stratif
richards
absolutely
flut
unadjusted
hfd
##oviral
##anners
planted
##oradiotherapy
extrahepatic
pesticide
reunion
louisville
discordant
sigmoid
epiph
topped
elector
sketch
locate
##ono
sumo
euph
elution
outreach
downs
euc
monroe
relegation
chemoattr
pbl
reptiles
homeostatic
relieve
honest
fibro
resides
prag
ordained
##akis
bcc
edwin
hypon
joins
weakened
##ipel
logar
leprosy
yankees
springfield
dielectric
accidentally
tunisia
hydrocephalus
amazing
perpetr
##olent
atresia
gpr
outward
buzz
occupy
##pers
perez
##oxal
##mat
predispose
marginally
##ifax
##ollen
carboxylic
arguing
##enet
headquartered
nicknamed
marqu
therapists
##azin
##hra
autoreg
inflamed
diversion
metabolized
loneliness
prestig
sunlight
thursday
mour
##arse
crawford
aston
sequentially
immunophen
lima
kell
325
glutamyl
legally
##uresis
booth
jub
explorer
somatosensory
imagine
mannitol
spaw
recoveries
eva
##eley
ipv
shepher
betty
footpr
aza
carm
personalities
slowing
frost
proxy
bulle
##transferases
##ик
amar
##lay
haematological
ttp
undiagnosed
diploid
morphometric
jewel
indistinguishable
heterosexual
relapses
cen
conduit
dorothy
pyrene
compatibility
##utz
254
recovering
asylum
##amba
pheochrom
prestigious
nanotubes
constructing
anionic
cups
quartiles
postd
monomers
electrospray
vasodilator
##130
##bil
barley
copolymer
tuned
vibrational
##oplasia
##ocarb
##amedullary
tma
shorts
autoradi
cavities
elephant
shaping
lastly
myot
offsh
panch
markov
syng
fna
turbul
defenses
intu
jugular
##cus
gaussian
proliferator
##arcer
##eco
sarcomas
##itures
topois
oligomer
prerequisite
demo
##lessness
gj
heinrich
##ermined
##tins
transaminase
##angiogenic
assignments
bia
mmr
salem
unpredict
owns
hydraulic
assemblies
mesangial
illustrations
wives
##ическ
nh2
cgrp
careers
sln
##othi
##onates
##bet
aren
oblique
ernst
##osm
composites
guatemala
peruv
propaganda
hcws
migrate
believing
casino
footnotes
smc
aluminium
relapsing
xii
munster
##otocin
treasure
##yseal
decisive
unoffic
vulgaris
yuk
heavier
glacier
melanomas
##mail
##oves
kra
##adin
fairy
watershed
evaluable
gating
nou
uae
##oviruses
manipulated
jungle
##apillary
impressed
enterobacter
restraint
strikingly
protagonist
occupancy
##iscus
insult
chaperone
##tists
##iferous
sopr
stretched
silva
lifting
klebs
interl
ptb
epithelia
mia
apollo
apolog
239
##orphic
emulsion
##itative
alexandria
classifications
promises
yag
gangli
chemoradiotherapy
exploitation
retest
##400
##ophores
outgrowth
oncologic
##ocial
colloidal
assassination
##iu
euros
subscale
boeing
confederation
invariant
neurob
picks
primera
troubles
1826
pegylated
learns
cil
shak
##electro
cbc
glycation
glandular
monica
destroyer
enk
bounded
234
tide
paralympic
aforem
rushing
wip
ffbb
microcirculation
##pora
aforementioned
##aminophen
hairpin
##estation
ballot
corona
tibetan
myrist
##itoneally
227
##stock
advocates
##faction
evs
scandin
tracked
hurling
absorpti
hank
oes
dirt
dayton
partis
necrotizing
infliximab
botanical
microfluidic
ulceration
promptly
depolar
maxwell
administering
1d
diazep
empress
volcanic
prussian
epicardial
bloodstream
halifax
cairo
arbor
tehran
fals
qatar
cct
##он
discriminating
roller
macdonald
##fibrom
sciatic
bombardment
scopus
voxel
ecz
galectin
##hurst
convoy
##therap
##iceal
translator
geneal
047
mural
localize
mcm
##wings
twisted
##ahr
postponed
traps
pard
tensions
##hans
io
##kie
portfolio
mart
decarboxylase
struggling
antithrombotic
cultivars
1829
reviewer
karnat
centrally
enteral
1775
trumpet
##rug
stoichi
violet
##leigh
ler
cholangiocarcinoma
employers
radiolabeled
gree
koz
comprehension
bavaria
nath
doz
fossils
nobility
kane
usp
swept
torr
raja
##unctional
attainment
topological
sleeve
revolt
parc
lund
biophysical
##angu
paracrine
##ocalcin
hbc
midazolam
inotropic
##omib
##anco
##ungen
degrading
##hart
##uras
squee
keeps
uncou
##ithiasis
violation
helsinki
intranasal
potter
prohibited
acanth
trucks
chemilum
criti
convales
pest
hfp
saxon
##ymic
coexistence
incarcer
##ogonal
##ygluc
neurones
ameliorate
mmse
expenditures
##zid
kamp
yosh
wilderness
letting
escort
##entanil
extensions
oligomers
etiologic
incomplet
missionaries
v2
tether
cranio
acetaminophen
newman
comprehensively
gp120
sorry
kul
seaw
##oley
bivariate
hscs
##ceps
avenues
##kind
prairie
lighter
##outing
##ocystis
roma
acetonitrile
##odermal
relaxed
eri
##oub
landscapes
dell
##ogren
circus
purine
micropartic
##okers
adequacy
oncogenes
aromatase
explosive
duff
palomar
allografts
hospitalisation
chb
shade
bradycardia
venezuelan
##orphin
reasonably
##05
sewage
chate
bury
cocc
##icine
##tan
1824
coronal
streptoz
##ums
absorptiometry
##irl
pulsatile
cushing
##rove
ulster
##o4
underway
##idaemia
needles
capsa
adipocyte
evangelical
dylan
##gart
splenectomy
anaplastic
itv
misuse
visualize
petr
tues
hydrog
nascar
abolition
bert
contraceptives
##eves
diluted
s1p
vick
##ац
quenching
entom
occluded
boyfriend
ivig
rack
eae
traged
api
allosteric
mitigation
##amides
stark
hai
doctoral
karnataka
##electron
deposit
balf
finalist
##од
maiden
##elyn
##gren
##ylobacter
effluent
trailer
##enary
##idays
flames
##rina
bees
tms
appendic
##yu
cambodia
radionuclide
lpa
sialic
taip
transposition
pasc
##osaur
miniature
l3
tymp
##onergic
qtl
aleks
biz
klebsiella
wheelchair
pericard
bz
bifurcation
sirt1
defl
dump
johnston
sustaining
capsaicin
osaka
pcna
fights
indisp
anyway
##roft
##hausen
cbd
maple
udp
desensitization
losartan
crowned
vault
hypermethylation
lactose
##athi
frater
algin
griffith
1821
custody
kicked
disrupting
mortem
sunk
bassist
##adas
ffbbbb
##oxazole
erp
partitioning
##anya
jing
disasters
241
pomp
refugee
iber
lunar
dentists
feb
hostile
rivalry
##aturity
etymology
frameworks
##agog
dining
##analy
soprano
lethality
ribosome
loans
gpcr
sgl
tatto
agarose
afforded
##iplatin
scrutin
delegation
##otoxins
transactions
metron
pharmaceuticals
wikip
255
riley
badm
provoked
germination
accreditation
##onder
shoots
biofilms
quarterfinals
cello
persistently
##dor
periodical
##umen
##aturation
expelled
phenotyp
deliber
vat
##acing
##anor
centrom
colch
gerd
##yi
harder
229
nong
ppp
physi
mantle
hayes
##plantation
acre
caudate
coincided
premiership
catabolism
##dn
campylobacter
carpenter
##dg
##phaly
seedlings
##quez
##aval
expired
unveiled
slaughter
##enone
sealed
##tria
hyperlip
vv
administrators
##endra
##iene
##210
##omeres
pathologically
davids
cruzi
g4
mucinous
##enicol
zw
kosovo
annular
##itious
firmly
referrals
readiness
thomson
yrs
pairing
##vent
##idation
mpt
exhaled
dehydro
immersion
##yz
sjogren
##esta
discourse
erythema
libert
252
ambiguous
serotonergic
trimethyl
##enium
hypoxemia
##itas
prick
##uke
opn
##standing
##tur
psc
##olan
eras
racism
scoli
marina
236
##ilden
ssr
gis
ladder
##ivudine
##adan
dhea
lineup
##co2
foetal
chik
##azepine
mccl
##imid
scarc
##aut
jc
nile
spss
##arrhythmic
disadvantage
subgen
speculated
##ulo
epr
##hom
destroying
dnmt
badminton
pyridine
antagonistic
sage
emer
pathologists
reconstructive
##unal
nau
antimal
unac
genders
biol
##ako
healed
##ications
identities
##inter
indispens
301
costume
##lore
fibrinolysis
bort
wolver
##icing
##ygotic
##ositi
##odopa
planets
jessica
tinn
het
watts
atle
t1dm
teenagers
glasses
pph
falcon
negro
ascribed
##tled
confinement
tj
##ovsk
obstacle
fractionated
##oreflex
scots
enjo
kau
postc
mx
huvecs
kernel
lease
##iformes
economist
astrocyt
accredited
##abr
243
##enzae
annotation
lichen
psy
leicester
skip
ei
intraperitoneally
invisible
motone
smd
cach
spare
mutually
eruption
spelling
##mons
##tigo
affiliation
derivation
##drs
wald
µg
##retin
synergistically
distraction
hyperthyroidism
##obe
242
##shot
##yglucose
##oza
antarctica
ui
ctcs
forbes
##aneur
chicks
za
hyperv
vocational
microglial
resembled
hawks
##abdom
##hao
1801
rifampicin
##naeus
049
shark
renovation
##licted
##osomiasis
##yrid
osteocalcin
aro
immunocompetent
diazepam
neurogenesis
convincing
inconsist
toil
##101
bran
triangular
fundament
outlets
hmgb1
forehead
tos
olt
neurogenic
hutch
##atide
mathematician
hypn
##repres
uranium
speculate
multilevel
bengali
scatter
telugu
summers
cedar
mra
oxaliplatin
birthweight
prominence
##oes
wickets
chu
thrombolytic
steal
fibrinolytic
affection
##hop
classifier
debrid
lambs
antidiab
evidences
251
heel
basel
ensuing
##xx
shim
contag
lymphadenopathy
operas
coloured
probabil
##itations
pms
##ifolia
brilliant
cd19
steering
macaques
citr
##anders
halls
nci
capped
1813
248
factories
##legia
dee
rs22
norton
1818
battalions
clips
bez
265
dentate
tetrap
firef
gardner
referee
bankruptcy
asparag
barton
##ivocal
##licates
facilitation
undersc
monks
##iteal
updates
inbred
constellation
##oselective
homogenates
pharyngeal
ancestors
concordant
##argin
antipsychotics
willie
##pace
breasts
shu
cylindrical
##neath
warned
pneumothorax
gynecologic
chemopre
formulas
##ogroup
afterward
retains
stil
bidirec
oxalate
##ophthal
rankl
042
latvia
spikes
regressions
bombers
bupivacaine
syrac
additions
wasting
transactivation
thalamic
wisdom
vacant
##grass
herman
##estan
solute
syl
delib
ecd
establishes
transparency
wwe
transferring
##6a
councillors
nonsense
hypertensives
##afe
acp
blunted
shrna
prevailing
6m
##epo
unavail
feminine
##ogonad
##yton
##erick
##elastic
##ignant
amphoter
##ophor
##utyric
##years
doi
lepid
starter
##onau
sanchez
chenna
reproduce
sonographic
lago
gyp
ats
##ilian
wheezing
ulnar
pixel
incap
greene
bombs
##ulos
shrew
xer
ltr
1810
i2
antithrombin
axes
suffolk
043
ontology
bags
cubs
vcam
browns
##liptin
substantia
monocytogenes
##anan
##isi
osmol
##alt
scoliosis
amenable
recapit
savanna
intercep
humph
intractable
herpesvirus
##anks
caco
charleston
fiji
pq
opg
##tructured
derives
blend
##jud
chips
blair
langer
rods
##aise
ivc
##cc1
buddhism
phenyle
booster
yolk
luteinizing
cryo
integrins
spacecraft
renewable
hydroxylation
homologue
griffin
##ortis
plantar
click
hypoplasia
flatten
freshman
pectoris
bruno
leiden
##aeus
lily
d4
weber
cull
moses
semiconductor
nanocomp
treasurer
vcard
funk
mm3
depicts
scouts
##ahi
tki
344
micronucle
mts
levodopa
##actyl
rost
pressor
##affe
##aped
##ientes
skiing
anatom
asi
scars
console
##agogue
schl
inclusive
europeans
##mosis
ams
mj
fluoxetine
mite
##ecca
calvin
440
excurs
eukaryotes
joshua
eia
galleries
magical
myofibrob
android
phenylephrine
shake
247
##mn
##iques
##emics
##ecre
torture
ond
synchronized
fpg
salam
porto
237
spiders
mistaken
adolf
wolves
endoscop
##world
##ем
##ных
genuine
condemned
pores
csc
underneath
guilt
indeterm
reds
paz
transformations
philosophers
paralleled
cyp2d6
wiley
synonymous
hps
##p4
speaks
peruvian
portsmouth
##add
##beta1
motivational
##wyn
miz
androgens
v3
caloric
unsatis
##tsch
vertebrae
enal
quater
spectrometer
pied
##ifa
cyclosporin
attribute
consume
mdm2
tlr2
miscarri
equivalents
##analysis
grape
confident
diphosphate
progresses
nipp
illeg
##cens
innoc
alkaloids
µm
miy
kcl
##им
photographic
accus
ait
emergencies
cfr
30th
##urai
unrespons
##rain
barber
##itize
e7
melanogaster
##roline
##ativa
supporter
funny
sponsor
arsen
sociology
monoamine
##millan
grouping
penic
wikipedia
motions
##erst
##lop
bride
drif
##atas
sno
zap
bise
syracuse
##enstein
exposing
##fin
##adine
flown
rox
vie
##houses
guad
grief
timothy
linearity
klein
##endoth
hof
311
##egro
bust
##asion
valpro
pleiotropic
humid
magistr
faction
els
fluc
salary
cloz
avr
##fts
providence
##bling
apartments
leaflet
##antha
tomas
progressing
##actants
revis
lankan
lightweight
coul
logistics
simplicity
mitogenic
myeloperoxidase
##hog
hydrod
##asculine
xenob
friction
##anas
brandon
annotated
gin
rous
phosphoryl
baden
storyline
##stry
1827
sulfide
##urd
##imilar
montenegro
jorge
850
##rap
huang
mentor
##osphate
incompletely
flush
ortholog
##power
lrr
##eshire
telehealth
offense
wd
triad
mega
histochemical
streptozotocin
elm
crist
hew
minis
flags
nationality
combustion
jian
analgesics
superimp
tinnitus
##atham
pierce
capsular
gmp
convergent
headaches
commissioners
ici
intrathecal
symmetrical
reproduced
dissected
shank
fetoprotein
nonm
acne
##tivo
##odeoxy
mistake
antitr
semiqu
saxony
secrets
rope
graphical
deutsche
##inqu
reminis
conjunctival
rai
leishmaniasis
ambassadors
enum
forebrain
incentives
##alon
reclass
divertic
knot
criticised
layered
tonsill
fortified
duchy
mechanistically
410
piglets
reliance
##itism
hispanics
lighthouse
clement
orthogonal
k1
hij
humanities
oestrogen
glycans
##s2
##iade
inclusions
lmp
tribune
lans
1822
influenzae
249
granulosa
iterative
outf
invading
mediastin
antim
mercy
##ango
preh
##stones
##iances
244
plague
churchill
ting
ftir
##ар
councillor
bian
synergy
hag
ida
orr
roberto
##2c
leaned
topoisomerase
##icide
walsh
tetanus
trench
categorical
persists
##ycline
luxury
##atro
adhere
juda
glycan
clamping
bilaterally
cfs
##apatite
haloper
violations
maternity
glucan
hypoglycemic
kub
##ouns
##ocutaneous
gog
harness
symposium
myopathy
##d4
liquids
molars
041
##stadt
pilgrim
revived
cruiser
igt
viremia
immunohistochemically
aberdeen
ribbon
ventricul
masculine
wp
gently
homozygotes
leopold
4000
unwanted
casey
##tick
trachea
##assic
hemostatic
granite
locomotion
checking
sometime
##otracheal
occupying
htn
pdc
objectively
savage
companions
prehistoric
cscs
##orpe
enalapril
exposition
submarines
nanow
sterol
scorer
singlet
patricia
##erating
flet
midlands
pm2
vish
hermann
##gamma
##uga
supra
##ophon
##azepam
dephosph
tachy
dixon
obsessive
feather
dtpa
sacramento
tensile
##atz
identifiable
bronchiolitis
##arya
squared
endarter
##alm
##lab
compli
bum
nonster
steat
##run
##rand
employer
haloperidol
photodynamic
##atally
temperate
##abain
cornel
migrant
curs
##ocyanate
##uche
nasc
030
interacted
wong
politically
##embry
isonia
hydrolase
elucidating
perivascular
fiss
ncc
cardiogenic
chym
aler
hfpef
responds
oropharyngeal
listeners
pont
indispensable
steroidal
cowboys
tags
resided
infarcts
rows
mbl
debridement
unpl
seldom
atra
compressed
clouds
pla2
##uents
298
##ahim
recanal
mycobacteria
acetyltransferase
kod
equil
ticks
##tilled
translocations
reinforce
cunning
ssp
autobiography
reporters
##system
##aventricular
chimer
sco
##hammed
cottage
luk
myelodys
pyel
spondylitis
merchants
spheres
nobody
metoprolol
cholestasis
perceive
ncs
unip
unrecognized
immunocytochemistry
##ibal
glcnac
xa
disputed
##oso
gefitinib
clozapine
squir
##keeping
titres
neurofibrom
proposition
subway
sue
sally
namib
amnes
thoracotomy
probabilistic
cnv
converts
crater
oma
pork
permeation
seam
hydrogels
ouabain
optional
communicating
gymnastics
randy
otitis
##inavir
intric
autocrine
analysing
dyslip
patents
telecommunications
246
##opeptidase
##endered
postgraduate
##inescent
verlag
##amoto
##width
gyna
##leep
##afa
##ologne
triv
bronchoscopy
zion
##uprofen
cavernous
##ahu
milieu
grating
subtropical
gloss
embarr
jumped
leone
erythromycin
##hams
aas
xav
romans
overcoming
253
artifact
flare
chlorophyll
fang
holistic
taurine
##grave
microin
sophie
woodland
50th
##itational
crises
underwater
##tex
##articular
slid
rafael
##eppe
exams
cheer
##ylaxis
buying
##q11
##osterol
hawaiian
elasticity
shook
##roz
unal
thrust
##eer
kuwait
cili
banding
dichro
305
biocompatibility
baldwin
diph
##arterial
bast
##ip1
##idate
feld
combinatorial
openly
thymocytes
##lash
peaking
heparan
assisting
pcbs
cholang
assemble
benzodiazepine
ave
mz
membranous
lymphoproliferative
scavenger
303
arid
##ocol
##timulated
##omen
315
homer
##tert
instituted
polysaccharides
obstetrics
##athic
intimal
pubertal
1816
prokary
pedigree
eczema
guill
maya
shoe
captive
irin
exceeds
##bn
ultrafil
sock
dentistry
mey
##olase
alcohols
visibility
angio
embarrass
hydroxyvitamin
saa
##нои
dizziness
acclim
chennai
kcn
coexisting
diagram
shrinkage
e4
##obut
arabian
ours
squadrons
aust
302
pugh
mage
266
mainst
neighbors
mmc
hypogonad
##rein
armoured
bundesliga
paradigms
santo
burdens
unselected
rector
suction
##pled
carnegie
reflections
##cl2
1758
talked
snails
amphotericin
##meter
pyramid
feared
mch
amended
adventi
##lee
downreg
francesco
asset
##weed
nadir
chapman
##acio
germinal
prostaglandins
crh
cinahl
##akr
scorp
abscesses
##edient
intravitre
kilometres
isoniazid
framingham
acclaim
barracks
4a
antec
pml
ibuprofen
vowel
##ilee
##orphine
##aney
jacket
prussia
enacted
brca2
##ieri
madras
taj
unevent
gerard
##dan
##oplasts
00001
pls
520
std
gius
inventor
tud
##oinositi
ops
orthostatic
dmso
##trypt
mohammad
lysosomes
insisted
scap
greenhouse
##wed
pharmacist
michelle
receptive
nf1
isoelectric
castration
encapsulation
curling
attribution
cruciate
lamivudine
cd56
repos
##leading
probiotic
bidirectional
respected
eclip
swamp
isoflurane
iatrogenic
##lessly
successes
linux
persec
dion
hitch
##unge
##bery
egfp
saga
ltp
recruits
ril
filmmaker
##eddy
indexed
rheumatology
anhydr
photocatal
anymore
scs
##acular
phylogeny
##amphenicol
nai
corros
physicist
##utta
1819
whale
tavi
##imotor
airing
cruel
ate
##azosin
oligo
##rection
shat
ventricles
simpler
kinderg
lbp
merced
zach
##far
geographically
emirates
gazette
dysfunctions
trophoblast
deacetylase
philippe
##emark
dynamical
tuesday
##ficially
extensor
gynaec
helmet
##i2
##odynam
imaged
antine
vmax
discovering
##lomer
peep
044
shig
chimpan
pens
container
basically
inmates
intercal
lisbon
trophic
1823
draining
unaccept
gtpase
jeffrey
commonest
fits
phones
monitors
460
beverage
itp
denervation
convince
slipped
testimony
##base
##lotinib
oxygenase
wen
hemip
symbolic
highlands
feline
broadcaster
parach
uncertainties
##ediation
##ibrate
bdi
##adol
internally
agitation
##olation
freeman
zoonotic
##enolol
##ogenetics
winston
hrp
##aven
taxi
285
unhealth
malad
cautious
submucosal
convex
downward
bits
erik
compliant
chewing
lactamase
pistol
##wana
nematode
##gut
bless
sicily
penicill
intersp
confidential
timed
krishna
gingivalis
fernandez
sst
redundant
assaul
licensing
bpm
thyroidectomy
refinement
##odarone
tep
##now
therapist
chloramphenicol
smiled
peptic
hild
258
npv
noteworthy
anchorage
cd10
zagre
contradictory
angus
halo
sleepiness
dodgers
commiss
##ensors
implicate
pcd
1806
submerg
kara
catalina
mash
##onavir
weightlif
cobb
scholarly
genres
257
refuses
nomencl
tutor
summon
cease
coronaviruses
torres
proclaimed
##abdominal
citrull
basolateral
retre
##strophy
preparedness
inaugurated
##inos
##ilers
herbs
monsters
horns
tuberc
faint
bess
restrict
neonate
linnaeus
backs
ppe
uti
tann
mits
ceremonies
##icuous
tunnels
shrub
bioassay
##ippers
webster
invention
##inflammation
foramen
pineal
##jor
meq
originates
cdr
ons
##aliana
operatively
synopsis
neuroscience
eaten
liposomal
detention
tunel
harp
sway
1817
bisexual
##erents
anaesthetic
refusal
##kow
##opeptide
rushed
viscount
colchicine
wavelengths
shy
gastroesophageal
biosensor
##orting
##epilep
gluten
regained
##ixed
paradoxical
273
##opters
compute
##ugr
unpredictable
infertile
gotten
##ofil
conversations
##andan
259
##inth
##oki
albu
happening
armored
appendicitis
como
p2y
tucker
labile
ameliorated
##rice
patriots
262
panthers
leukotriene
##tifications
succinate
mycoplasma
conviction
neb
##ulph
mish
##ells
263
favorably
seth
covariance
serm
contestant
handbook
pockets
coarse
reticular
compuls
blaz
gpa
detached
intratumoral
correlating
295
worcester
morton
delph
ritonavir
plga
tpo
mbc
procure
atenolol
geoffrey
predator
constriction
workup
##luoro
##hai
effusions
sdf
##ulina
morm
torsion
##ridge
embolic
codons
##vised
universiade
##atu
##jord
adjuv
abolish
seropositivity
gale
##09
##syn
contracting
irinotecan
clause
reel
warehouse
##bv
huss
scaled
disputes
boliv
mounting
##nian
alginate
thinks
##olester
##tomycin
##lt
saphenous
confronted
gfap
##yar
chitin
dess
amlodipine
blasts
rust
gabaergic
##andi
methamphetamine
cologne
aria
##ardy
mongolia
ferguson
adhesions
##long
ampicillin
hypotensive
alike
handful
##imetic
invested
##eprazole
regent
##ympathetic
mma
##reneurs
triplet
disco
##obiliary
forsk
##oton
youths
##cock
##omus
unspec
settling
civilization
noon
oligosaccharides
nicol
backup
cddp
microbiology
southampton
##toria
fviii
disgu
teammate
fec
304
3beta
sherman
burma
braves
csp
##chin
explants
dubai
theatres
patterning
roi
zoster
nomogram
culm
toxicology
##azo
yas
schne
t7
msec
niss
blame
##anat
distorted
pastoral
17beta
admit
holstein
caves
arthroscopic
buffered
noah
amalgam
salinity
anthropology
ump
elders
urgency
vb
solids
hscrp
premise
wires
s6
shit
begg
debil
harms
calcified
zagreb
sorption
realization
dissert
dinit
dx
stz
##ulinum
cq
cdi
linoleic
framed
##bria
reacting
irritation
noel
##wind
##neu
fasci
ctr
flagship
cumber
##abol
fisheries
fuzzy
eun
chronological
malayalam
268
##ximal
##evi
descended
cd11b
##ievable
stenoses
moroccan
hospice
circumferential
urged
##orte
##iento
acetylcholinesterase
ivy
mikhail
##abo
288
themed
indeterminate
migrating
resolving
pavilion
choroid
pao2
calcine
mm2
spiked
seph
embryogenesis
vernon
nephrotoxicity
tlc
##ohep
mls
premium
intraventricular
thaliana
##esy
sevo
icg
1803
sequestration
commands
afm
terrible
sprin
kins
##uster
toxicological
transmiss
avi
decoration
liposome
jenkins
huvec
confluence
pursuing
##tised
333
anticonv
bash
conne
triton
plag
rigidity
inflow
wondered
##meth
hannah
cognate
unofficial
nts
nonsignificant
gras
##efin
shen
glomeruli
p300
276
preconditioning
##arthy
##mers
swimmer
rejo
sensorimotor
fistulas
fluxes
synapse
hypoc
ashley
distinctly
synchronization
##ariat
homeland
fluctuation
##butamine
antiarrhythmic
hcy
heterozygotes
meiotic
macroc
267
ccrcc
interfacial
expose
##tling
##appa
##onen
shaking
subtraction
concentric
lymphadenectomy
dozens
hac
isn
hw
cytosine
kup
loyalty
wasnt
correcting
hairy
alexandra
rebecca
worthy
amiodarone
entrepreneurs
sarcopenia
xavier
acetone
stringent
calcineurin
loving
charitable
gastroenteritis
convent
501
impr
discern
damn
spasm
##ulton
reflexes
dres
##ourished
apostolic
registers
crews
positional
inactivity
sms
jerome
278
reimbursement
opted
antidiabetic
1809
compartmental
licence
superman
exercised
transfused
##glyc
##iliation
l4
stratum
wage
wah
icelandic
hypertriglyceridemia
janet
##bye
iee
##tenham
cecil
reminiscent
eman
##assis
merits
workflow
zambia
##emas
perennial
##timulatory
ejac
unhealthy
spiro
anthrac
stepping
sorted
bates
genis
quiescent
hig
ecclesias
rotter
notorious
grp
willis
ubiquitination
regret
fletcher
malawi
skate
uzbek
helmin
spans
venus
##harmonic
constraint
##alli
321
bergen
cd2
s100a
czechoslovakia
xbox
gip
grazing
eden
##keepers
dobutamine
spinning
bulletin
##ingen
schmidt
fatalities
spines
formaldehyde
hematopoiesis
wilcoxon
bortez
helena
butt
princes
retarded
davidson
larynx
statewide
a4
vpa
pigmented
renovated
pottery
discour
juxt
amyl
dipole
alps
bortezomib
bacilli
sunsh
calibrated
cardioresp
fibros
##plane
##arabine
stats
##anoic
apa
castro
monter
hoh
tata
bursts
##ек
bathroom
grounded
cpa
biotechnology
ivory
##opathological
barre
##geon
gros
mastering
jacksonville
rs18
proband
gymnasium
##zburg
leigh
bleomycin
propyl
acclaimed
explanatory
##lance
samm
prur
asleep
twelf
extrap
vegetative
geo
##сл
chairs
chi2
o157
##odextrin
stump
cardiorespiratory
sigh
tumoral
kerry
atletico
##uni
sponsorship
##oys
armament
##lozin
stip
nhe
missiles
ncr
specialised
glam
chori
##getown
likes
acrome
prav
fishes
##yphenyl
neurology
circa
innerv
tung
twelfth
climatic
sutures
nicarag
cao
wonderful
couch
unload
trilogy
bant
ferric
intermolecular
##butamol
atopy
##erus
panor
##romic
folklore
penc
pyth
hypercalc
272
##ueb
sunitinib
stranger
drill
sinusoidal
trevor
cyclist
shannon
absorbance
pta
pumping
toled
alma
yog
dsa
heritable
spart
jackie
##plus
##ahs
profoundly
tolerate
tones
reck
endonuclease
bays
crashes
purchasing
stereo
clarin
##acyclin
redevelop
buddy
interneur
##ив
junctional
##nick
uci
schooling
retinoblastoma
1790
##rednis
parkinsonism
latitude
infecting
##ifers
valence
extern
wreck
amplic
##opal
##tershire
angela
asteroid
mozamb
followup
stutt
msa
##ibi
eos
lengthy
floyd
24th
##f3
zomb
insurg
##ropyr
##bard
hypocal
correspondent
mou
##lined
bombay
eyed
factorial
fbb
##°c
infinity
##tians
visitor
granuloma
protons
osteomyelitis
neurosurgical
hyponatre
bae
312
uvb
ping
sharks
positives
greenland
sidney
##ankton
trimeth
ugt
erlotinib
prominently
470
governorate
temporally
offshore
peaceful
branded
adal
clem
eralpha
ssa
collagenase
vaugh
dia
##olithic
pher
salbutamol
##ca1
clare
chronicles
stocks
##ronine
aviv
lvad
wartime
hematuria
pablo
##ospace
##antigen
krist
ethiopian
climbed
environmentally
concentrates
nymph
androst
toul
manic
##cott
sevoflurane
261
glycosamin
riot
iol
##trac
pyroph
kingdoms
endarterectomy
390
dendrites
hither
transaction
dystonia
gateway
kashmir
hydroxide
vincr
disciplinary
achieves
js
mick
##beck
##arsity
alley
dxa
contingent
shepherd
nonsteroidal
chateau
britt
bovis
deformities
pyrimidine
##uctal
cholangitis
skiers
courthouse
shortest
fitzg
ding
##ght
##clair
brock
dichroism
##utations
lau
regain
upgrade
diode
rabies
melt
shane
sephar
alloc
medalist
esterase
neill
cadaveric
##ticism
macrol
destinations
orchid
loosely
##atie
carcinogen
tickets
simulator
storey
valencia
manipulate
embol
templates
##gc
realizing
desperate
quietly
forskolin
overhead
relying
##terson
1700
operon
286
##ometers
##loo
bps
##oxan
contrasts
nociceptive
nyc
myomet
##evich
seating
feast
unaltered
responder
##ipher
tst
eze
##ephalin
roh
kolk
insertions
cym
##umbens
##istric
abortions
archipel
shame
anesthesi
phosphoinositi
morphogenetic
dah
europa
hedgehog
coleman
stalin
##bys
1808
peanut
nsaid
locoreg
debates
duchess
walled
protector
stear
##adher
rankin
##ublished
##phase
pioneers
##rists
pragmatic
wagon
challenger
shocked
auf
puff
alberto
nonsmokers
verses
##ildenafil
##church
mare
vampires
biore
##irmed
urtic
polyph
longitudinally
religions
forbidden
parasympathetic
isth
micronutri
balancing
aec
amanda
##ommission
bould
transcriptomic
crystallization
marriages
##elen
##d3
##cyclic
networking
aspergill
oesophag
simulating
##rocedural
##otox
hyaluron
mari
##alla
qb
1811
hernand
ccp
angola
recession
##ytoin
##acetamol
xiii
gastropod
kah
calorimetry
hansen
universally
vibrio
methylprednis
sunshine
pvr
nixon
##ipur
##dioc
##gp
pang
economical
reply
intras
##obutyric
##ulata
##ashing
lysates
oman
penalties
unfolding
##agin
jenny
adenoviral
tragedy
forestry
ovx
hyperuric
myd
metabolically
##atran
aristocr
##osyltransferase
vincristine
travelers
beech
feathers
partnered
stub
habitual
turtle
partur
chemoattractant
unesco
hindered
##ру
prosecution
porch
ctni
bucking
prints
hypercap
ankylosing
fusions
##hp
ductus
purpura
##ungs
hourly
interobserver
##embryonic
##kson
legitimate
prizes
kak
##athlon
##oprotection
furos
l5
wl
cimt
##stalk
sepharose
##ylar
##ende
fortun
zhu
cd133
nonfatal
ch3
query
noticeable
sildenafil
##iggins
lumber
fission
photosynthesis
craniofacial
archived
submit
cdnas
professionally
empirically
transesophageal
krak
##uridine
tubul
astronomy
dimerization
allop
thrombi
qualifier
fiba
##js
##itar
scarring
emi
unpublished
satisfy
nina
##oluminescence
ecclesiastical
plasmon
waveform
kerr
inlet
midd
296
belly
##macy
##ethanolamine
tru
rotterdam
maxill
##at1
##iously
libya
##embolization
coordinating
coagulopathy
ltc
no2
pray
##gram
##ofovir
1793
##kas
##116
430
##vertebral
1794
irving
birch
salient
##fm
stam
gorge
locking
##ermo
algerian
exceptionally
pitt
assumes
disabling
preparatory
ideology
antiepilep
herds
anaphylaxis
alve
euthan
nomenclature
anticonvuls
andhra
minds
filamentous
bulldogs
##peridone
feeds
repeatability
neurotoxic
natives
##enton
prud
hampton
mohammed
mae
##ovar
intravitreal
bells
purkin
ruby
1798
salon
upa
myopia
fontan
midbrain
quadric
opiate
##ischen
protesters
##293
hyder
unsuccessfully
##anav
competitor
reabsorption
efs
oncologists
corrections
purkinje
bolog
jah
securing
atcc
assesses
mdct
statues
christine
holders
delegate
archdioc
comply
psychomotor
metabolomics
fright
dext
antiphosph
audition
clyde
cnt
analyte
immunology
sandstone
17a
269
##odu
##terolateral
proving
homic
stripped
bolton
butterflies
metaplasia
ipa
sends
directory
quinn
conrad
precious
##ateness
packages
##istries
meditation
tcp
##yland
##epi
multitude
hunters
aggressiveness
sanskr
childbirth
##rna
287
osteoclasts
bioactivity
##olaryng
nanofib
turbo
biodegradable
carson
degs
embarked
##187
touching
mef
calv
acetabular
beaches
##otive
threefold
crescent
ecole
hammond
obit
##icc
gior
prose
virions
limbic
thc
pneumonitis
methylprednisolone
lanes
##istin
litig
speculation
crane
cytologic
outputs
dissociated
##openic
supposedly
unresolved
271
constantinople
inflammasome
endotracheal
creep
spatiotemporal
tkis
stains
##otti
##sv
probiotics
psd
carcinogens
tko
precipitated
1805
podcast
pheochromocytoma
chun
reconstruct
eco
bother
contempl
##atars
##riz
quartz
1807
percy
flt3
aca
##olimus
essence
augustus
hitherto
eul
kyr
##ikrein
040
po2
serr
##k9
subclavian
shiva
unfolded
sterling
monoph
paracetamol
299
1804
540
sutton
macc
chemores
fury
vign
octre
polyposis
taipei
##2r
periodically
reflective
carcinoid
##onec
softball
toledo
afferents
274
citrus
dialysate
dyskines
lentiviral
amphibians
chemos
##rah
277
pioneering
##oxaban
flavor
caen
disproportionately
##oct
clue
cryptospor
calder
emitting
mai
##аз
diaphragmatic
cholester
prostacyclin
professors
macromolecules
anthem
roche
analyst
##ак
##hamshire
5a
oscillation
thorax
mcle
epithel
##omatis
##ofer
##ocide
exotic
microf
permeable
ec50
reservation
jum
##agliptin
tempo
pairwise
genistein
##say
##wara
evan
##tifying
bapti
polyphenols
demons
aneurysmal
##teric
316
raids
##omys
rowers
mati
##onasal
ieee
vegfr
##idan
chloroplast
##flower
quadrant
##aras
##kett
analyzes
caled
xy
flexor
corporations
slovenian
strata
niz
##utan
glanced
keywords
##rest
karachi
brug
vatic
ducks
lop
##rets
petro
burr
shiv
aerospace
syncytial
precau
confeder
omp
neurotransmission
hydatid
toluene
##hab
ghosts
ultrasonographic
fence
306
anabolic
commens
##omn
dural
##itri
physiotherapy
dermis
italia
##osah
katherine
cooked
herbiv
309
adapting
sings
[...]
